{"<|endoftext|>":0,"!":1,"\"":2,"#":3,"$":4,"%":5,"&":6,"'":7,"(":8,")":9,"*":10,"+":11,",":12,"-":13,".":14,"/":15,"0":16,"1":17,"2":18,"3":19,"4":20,"5":21,"6":22,"7":23,"8":24,"9":25,":":26,";":27,"<":28,"=":29,">":30,"?":31,"@":32,"A":33,"B":34,"C":35,"D":36,"E":37,"F":38,"G":39,"H":40,"I":41,"J":42,"K":43,"L":44,"M":45,"N":46,"O":47,"P":48,"Q":49,"R":50,"S":51,"T":52,"U":53,"V":54,"W":55,"X":56,"Y":57,"Z":58,"[":59,"\\":60,"]":61,"^":62,"_":63,"`":64,"a":65,"b":66,"c":67,"d":68,"e":69,"f":70,"g":71,"h":72,"i":73,"j":74,"k":75,"l":76,"m":77,"n":78,"o":79,"p":80,"q":81,"r":82,"s":83,"t":84,"u":85,"v":86,"w":87,"x":88,"y":89,"z":90,"{":91,"|":92,"}":93,"~":94,"¡":95,"¢":96,"£":97,"¤":98,"¥":99,"¦":100,"§":101,"¨":102,"©":103,"ª":104,"«":105,"¬":106,"®":107,"¯":108,"°":109,"±":110,"²":111,"³":112,"´":113,"µ":114,"¶":115,"·":116,"¸":117,"¹":118,"º":119,"»":120,"¼":121,"½":122,"¾":123,"¿":124,"À":125,"Á":126,"Â":127,"Ã":128,"Ä":129,"Å":130,"Æ":131,"Ç":132,"È":133,"É":134,"Ê":135,"Ë":136,"Ì":137,"Í":138,"Î":139,"Ï":140,"Ð":141,"Ñ":142,"Ò":143,"Ó":144,"Ô":145,"Õ":146,"Ö":147,"×":148,"Ø":149,"Ù":150,"Ú":151,"Û":152,"Ü":153,"Ý":154,"Þ":155,"ß":156,"à":157,"á":158,"â":159,"ã":160,"ä":161,"å":162,"æ":163,"ç":164,"è":165,"é":166,"ê":167,"ë":168,"ì":169,"í":170,"î":171,"ï":172,"ð":173,"ñ":174,"ò":175,"ó":176,"ô":177,"õ":178,"ö":179,"÷":180,"ø":181,"ù":182,"ú":183,"û":184,"ü":185,"ý":186,"þ":187,"ÿ":188,"Ā":189,"ā":190,"Ă":191,"ă":192,"Ą":193,"ą":194,"Ć":195,"ć":196,"Ĉ":197,"ĉ":198,"Ċ":199,"ċ":200,"Č":201,"č":202,"Ď":203,"ď":204,"Đ":205,"đ":206,"Ē":207,"ē":208,"Ĕ":209,"ĕ":210,"Ė":211,"ė":212,"Ę":213,"ę":214,"Ě":215,"ě":216,"Ĝ":217,"ĝ":218,"Ğ":219,"ğ":220,"Ġ":221,"ġ":222,"Ģ":223,"ģ":224,"Ĥ":225,"ĥ":226,"Ħ":227,"ħ":228,"Ĩ":229,"ĩ":230,"Ī":231,"ī":232,"Ĭ":233,"ĭ":234,"Į":235,"į":236,"İ":237,"ı":238,"Ĳ":239,"ĳ":240,"Ĵ":241,"ĵ":242,"Ķ":243,"ķ":244,"ĸ":245,"Ĺ":246,"ĺ":247,"Ļ":248,"ļ":249,"Ľ":250,"ľ":251,"Ŀ":252,"ŀ":253,"Ł":254,"ł":255,"Ń":256,"in":257,"Ġt":258,"Ġa":259,"he":260,"ing":261,"Ġo":262,"Ġthe":263,"er":264,"en":265,"Ġof":266,"Ġs":267,"es":268,"on":269,"Ġc":270,"at":271,"or":272,"it":273,"Ġf":274,"re":275,"Ġw":276,"Ġin":277,"ar":278,"al":279,"Ġb":280,"ed":281,"an":282,"Ġm":283,"st":284,"Ġp":285,"ou":286,"Ġl":287,"ion":288,"Ġd":289,"ent":290,"Ġe":291,"is":292,"om":293,"el":294,"Ġan":295,"il":296,"ce":297,"gh":298,"ess":299,"ic":300,"Ġg":301,"ra":302,"Ġto":303,"Ġn":304,"un":305,"Ġth":306,"ch":307,"ur":308,"ter":309,"ro":310,"Ġ#":311,"Ġh":312,"ea":313,"ith":314,"ct":315,"et":316,"ver":317,"ri":318,"Ġwith":319,"Ġfor":320,"ation":321,"ul":322,"Ġon":323,"Ġand":324,"ir":325,"ol":326,"Ġst":327,"ay":328,"ot":329,"ment":330,"ds":331,"as":332,"ity":333,"Ġre":334,"iv":335,"ow":336,"im":337,"ect":338,"rou":339,"Ġch":340,"us":341,"Ġcon":342,"ght":343,"ers":344,"art":345,"pl":346,"am":347,"ding":348,"if":349,"all":350,"ness":351,"Ġby":352,"de":353,"Ġv":354,"king":355,"os":356,"ut":357,"ure":358,"Ġj":359,"Ġun":360,"'s":361,"ap":362,"Ġsh":363,"mb":364,"ful":365,"ies":366,"ast":367,"up":368,"Ġex":369,"ip":370,"ating":371,"ain":372,"Ġhe":373,"Ġr":374,"ie":375,"ight":376,"est":377,"Ġcl":378,"ac":379,"ear":380,"oo":381,"Ġcom":382,"rough":383,"Ġne":384,"Ġthrough":385,"In":386,"end":387,"ence":388,"em":389,"id":390,"Ġat":391,"ate":392,"ance":393,"ad":394,"av":395,"ost":396,"th":397,"Ġmy":398,"ions":399,"ill":400,"ke":401,"ov":402,"ust":403,"ass":404,"oy":405,"qu":406,"Ġsp":407,"ach":408,"op":409,"ife":410,"ist":411,"ly":412,"ning":413,"se":414,"eng":415,"ag":416,"our":417,"cho":418,"der":419,"mp":420,"per":421,"Ġcre":422,"Ġnew":423,"Ex":424,"cing":425,"Ġar":426,"Ġas":427,"ant":428,"Ġeach":429,"ld":430,"ind":431,"Ġwor":432,"oun":433,"Ġthat":434,"den":435,"le":436,"Ġpro":437,"Ġlife":438,"Ġheart":439,"ib":440,"ci":441,"um":442,"Ġla":443,"row":444,"lo":445,"her":446,"Ġchall":447,"Ġchalleng":448,"Ġis":449,"Ġaf":450,"eni":451,"Ġfr":452,"cc":453,"ling":454,"ting":455,"Ġfri":456,"Ġwh":457,"Ġpl":458,"Ġjoy":459,"At":460,"ee":461,"fl":462,"vent":463,"enior":464,"ement":465,"ĠA":466,"Ġsk":467,"ream":468,"Ġint":469,"ghter":470,"ourn":471,"eel":472,"ike":473,"ry":474,"vel":475,"ends":476,"Ġser":477,"ous":478,"uring":479,"ey":480,"ĠS":481,"Ġday":482,"Ġdream":483,"plor":484,"Senior":485,"cer":486,"hon":487,"mot":488,"ran":489,"Ġup":490,"ine":491,"ark":492,"Ġmom":493,"Ġafter":494,"eeling":495,"Ġmoment":496,"air":497,"co":498,"een":499,"hy":500,"Ġtim":501,"hed":502,"here":503,"Ġover":504,"ated":505,"Ġfl":506,"Ġbea":507,"Ġme":508,"out":509,"Ġde":510,"ive":511,"Ġart":512,"Emb":513,"Re":514,"ig":515,"ude":516,"ving":517,"Ġk":518,"ory":519,"Ġecho":520,"Ġemot":521,"very":522,"Ġdreams":523,"az":524,"pt":525,"ughter":526,"Ġad":527,"orm":528,"arden":529,"Ġlike":530,"Ġdis":531,"Ġinto":532,"ourney":533,"cert":534,"Ġbeaut":535,"The":536,"com":537,"sp":538,"ĠM":539,"Ġsun":540,"itude":541,"arm":542,"Ġpain":543,"Ġnight":544,"ack":545,"Ġcomp":546,"ope":547,"peri":548,"En":549,"ge":550,"ia":551,"iz":552,"Ġab":553,"ature":554,"ort":555,"Ġlea":556,"ise":557,"app":558,"ook":559,"hot":560,"pr":561,"way":562,"ĠC":563,"ors":564,"ell":565,"Ġgarden":566,"Ġres":567,"ound":568,"Ġlaughter":569,"Ġfrom":570,"oc":571,"Ġra":572,"Ġim":573,"ending":574,"Ġsy":575,"Ġlov":576,"Ġdes":577,"Ġjourney":578,"ood":579,"Ġcreat":580,"Ġworld":581,"Ġfriends":582,"hony":583,"Ġbeauty":584,"eat":585,"og":586,"ru":587,"iness":588,"one":589,"Ġfin":590,"oul":591,"rap":592,"chie":593,"tered":594,"usic":595,"Ġclass":596,"ears":597,"Att":598,"Ġsky":599,"Ġseren":600,"Ġsymp":601,"St":602,"are":603,"eb":604,"Ġtal":605,"Ġtra":606,"ering":607,"ong":608,"Ġwhere":609,"and":610,"Ġduring":611,"icip":612,"Ġsymphony":613,"Con":614,"ak":615,"aking":616,"cit":617,"fect":618,"hip":619,"iet":620,"ject":621,"Ġy":622,"Ġen":623,"Ġro":624,"ense":625,"Ġsol":626,"Ġsoul":627,"attered":628,"ories":629,"ities":630,"Ġpers":631,"Ġdance":632,"Ġevery":633,"ical":634,"Ġgl":635,"Ġnature":636,"ival":637,"ivity":638,"Explor":639,"Ġchallenges":640,"Ġemotions":641,"Feeling":642,"Teen":643,"ab":644,"ail":645,"day":646,"gg":647,"ire":648,"ll":649,"les":650,"less":651,"now":652,"nect":653,"oin":654,"pers":655,"ucc":656,"we":657,"Ġqu":658,"Ġtea":659,"Ġachie":660,"Ġcol":661,"itter":662,"alg":663,"Ġbre":664,"Ġmem":665,"Ġper":666,"entment":667,"ispers":668,"Ġconcert":669,"aster":670,"earning":671,"ostalg":672,"chool":673,"Ġplay":674,"eek":675,"flect":676,"Ġechoes":677,"Ġabout":678,"Ġperson":679,"Exploring":680,"uccess":681,"cap":682,"ep":683,"fer":684,"min":685,"mun":686,"ner":687,"ration":688,"ts":689,"ub":690,"Ġ'":691,"Ġri":692,"Ġtri":693,"Ġout":694,"Ġsur":695,"Ġsense":696,"Ġco":697,"orrow":698,"Ġblo":699,"ands":700,"Ġpea":701,"ought":702,"Ġnot":703,"Ġhope":704,"usi":705,"Ġvib":706,"oss":707,"apt":708,"Ġexperi":709,"Ġwork":710,"Ġproject":711,"Ġtime":712,"ostalgia":713,"Ġpersonal":714,"ex":715,"igh":716,"pair":717,"ĠD":718,"Ġtur":719,"Ġtran":720,"Ġair":721,"ening":722,"Ġse":723,"Ġsil":724,"Ġschool":725,"its":726,"itness":727,"aring":728,"ancing":729,"Ġmel":730,"Ġmind":731,"ished":732,"ily":733,"Ġthought":734,"eas":735,"amily":736,"Ġshow":737,"Ġmoments":738,"Ġadvent":739,"coming":740,"Ġcreativity":741,"citement":742,"fus":743,"od":744,"oon":745,"ping":746,"rin":747,"ring":748,"rat":749,"Ġac":750,"Ġold":751,"Ġsc":752,"Ġcar":753,"ath":754,"iting":755,"ition":756,"Ġwarm":757,"Ġinsp":758,"Ġbe":759,"Ġbet":760,"Ġbook":761,"Ġmov":762,"Ġpr":763,"Ġemb":764,"iss":765,"eleb":766,"ile":767,"racing":768,"iration":769,"Ġstar":770,"Ġconnect":771,"age":772,"Ġchallenging":773,"Ġwhispers":774,"Ġsuns":775,"hotog":776,"prise":777,"Ġlove":778,"Ġtales":779,"munity":780,"ratitude":781,"hotograp":782,"ade":783,"ck":784,"ff":785,"pp":786,"rt":787,"rill":788,"rust":789,"ss":790,"ted":791,"umb":792,"vement":793,"war":794,"ĠF":795,"ĠP":796,"Ġact":797,"enc":798,"Ġwav":799,"ary":800,"ang":801,"Ġev":802,"Ġemp":803,"Ġevent":804,"ish":805,"Ġanci":806,"ild":807,"Ġreal":808,"roun":809,"ush":810,"Ġunder":811,"idst":812,"avor":813,"quil":814,"Ġfriend":815,"cover":816,"Ġdespair":817,"Ġmemories":818,"Ġsurprise":819,"Ġthoughts":820,"Ġancient":821,"De":822,"Over":823,"by":824,"iel":825,"ios":826,"led":827,"ĠI":828,"ĠL":829,"ĠW":830,"Ġent":831,"Ġag":832,"Ġso":833,"Ġset":834,"ons":835,"Ġcan":836,"Ġcur":837,"ates":838,"Ġfre":839,"Ġfeeling":840,"Ġfamily":841,"Ġweek":842,"anding":843,"Ġloc":844,"cept":845,"Ġgol":846,"race":847,"rok":848,"ations":849,"Ġrec":850,"owing":851,"iffer":852,"Ġcommunity":853,"assion":854,"ibil":855,"Ġcompan":856,"Ġbloom":857,"Ġpeace":858,"Ġmelod":859,"iosity":860,"ads":861,"ef":862,"form":863,"husi":864,"pect":865,"ty":866,"ther":867,"ticip":868,"tentment":869,"ud":870,"whe":871,"ĠE":872,"ĠT":873,"ins":874,"Ġtears":875,"Ġsuccess":876,"onel":877,"Ġcity":878,"ite":879,"Ġind":880,"arking":881,"Ġbitter":882,"Ġlost":883,"Ġlands":884,"ional":885,"ism":886,"ome":887,"eless":888,"Ġthrill":889,"ures":890,"termin":891,"Ġhist":892,"Ġhapp":893,"eting":894,"irit":895,"Ġstory":896,"Ġstorm":897,"Ġshattered":898,"fully":899,"Ġcreating":900,"Ġlaby":901,"Ġskill":902,"rying":903,"Ġupcoming":904,"Embracing":905,"Reflect":906,"Ġsolitude":907,"Ġquiet":908,"Ġteam":909,"Ġtranquil":910,"Ġsilent":911,"Ġadventure":912,"rinth":913,"Ġaccept":914,"Ġinspiration":915,"Ġsunset":916,"Ġevening":917,"round":918,"Ġenthusi":919,"Ġagain":920,"ibilities":921,"Ġlabyrinth":922,"Art":923,"Cl":924,"Sp":925,"ace":926,"ake":927,"ber":928,"ice":929,"ks":930,"mer":931,"ois":932,"over":933,"oot":934,"ress":935,"ric":936,"ues":937,"wn":938,"ðŁ":939,"ĠB":940,"ĠThe":941,"ĠðŁ":942,"Ġacc":943,"ingers":944,"Ġother":945,"encing":946,"Ġca":947,"Ġceleb":948,"Ġfra":949,"Ġwon":950,"ander":951,"ster":952,"Ġpre":953,"Ġpast":954,"ompl":955,"ils":956,"Ġgri":957,"Ġnostalgia":958,"room":959,"ulf":960,"ult":961,"ments":962,"Ġrel":963,"ived":964,"ower":965,"Ġchar":966,"Ġconst":967,"arted":968,"Ġunf":969,"Ġshad":970,"Ġexplor":971,"ipping":972,"Ġclou":973,"Ġclub":974,"Ġcompl":975,"ident":976,"avig":977,"Ġspirit":978,"indness":979,"ount":980,"Ġpainting":981,"Ġrain":982,"Ġfinding":983,"Ġserenity":984,"Ġachievement":985,"Ġcolors":986,"cape":987,"Ġwarmth":988,"Ġlocal":989,"Ġcompanion":990,"oneliness":991,"Ġacceptance":992,"Ġagainst":993,"Ġaccompl":994,"Com":995,"eal":996,"evel":997,"hor":998,"ide":999,"ious":1000,"joy":1001,"lm":1002,"mos":1003,"port":1004,"rant":1005,"rush":1006,"tem":1007,"ual":1008,"uil":1009,"ves":1010,"ĠN":1011,"Ġend":1012,"inter":1013,"Ġtw":1014,"Ġtom":1015,"Ġare":1016,"ings":1017,"Ġtheir":1018,"ens":1019,"Ġcup":1020,"Ġcher":1021,"athy":1022,"orn":1023,"Ġfall":1024,"als":1025,"Ġbl":1026,"Ġbri":1027,"ane":1028,"ans":1029,"Ġmar":1030,"Ġmusic":1031,"Ġmaster":1032,"Ġposs":1033,"Ġpath":1034,"Ġlong":1035,"elf":1036,"ict":1037,"Ġgrow":1038,"Ġgratitude":1039,"rac":1040,"Ġthis":1041,"Ġwithin":1042,"Ġstep":1043,"asm":1044,"own":1045,"ows":1046,"impl":1047,"Ġcham":1048,"Ġvast":1049,"Ġru":1050,"Ġrhy":1051,"iece":1052,"aces":1053,"thm":1054,"illed":1055,"ages":1056,"Experi":1057,"Ġwhile":1058,"Ġartist":1059,"Embarking":1060,"Ġknow":1061,"ptim":1062,"Ġleaving":1063,"appoin":1064,"Attending":1065,"Ġserene":1066,"Ġvibrant":1067,"aptiv":1068,"Ġturn":1069,"fusion":1070,"Ġmovie":1071,"Ġconnection":1072,"hotography":1073,"ppre":1074,"Ġwaves":1075,"ield":1076,"ledge":1077,"Ġweekend":1078,"whelm":1079,"Ġindiffer":1080,"Ġhistor":1081,"Reflecting":1082,"Ġothers":1083,"andering":1084,"Ġcherished":1085,"Ġrhythm":1086,"Ġknowledge":1087,"An":1088,"Join":1089,"Lost":1090,"Lover":1091,"Part":1092,"Sh":1093,"Un":1094,"Wh":1095,"ament":1096,"cis":1097,"gan":1098,"iding":1099,"ience":1100,"lit":1101,"lation":1102,"ps":1103,"rgan":1104,"uel":1105,"vas":1106,"ĠG":1107,"ĠK":1108,"Ġer":1109,"Ġit":1110,"Ġeng":1111,"Ġal":1112,"Ġam":1113,"Ġaway":1114,"Ġoptim":1115,"Ġsm":1116,"Ġsn":1117,"Ġsup":1118,"Ġsorrow":1119,"Ġself":1120,"Ġcra":1121,"atch":1122,"ord":1123,"Ġfound":1124,"reads":1125,"Ġwr":1126,"Ġback":1127,"eds":1128,"anch":1129,"Ġmoon":1130,"Ġmidst":1131,"Ġpois":1132,"Ġpages":1133,"Ġlevel":1134,"Ġdel":1135,"Ġdark":1136,"Ġgo":1137,"Ġgran":1138,"ray":1139,"Ġtowar":1140,"Ġnumb":1141,"Ġthreads":1142,"ural":1143,"Ġhigh":1144,"vers":1145,"irling":1146,"ott":1147,"ime":1148,"ecture":1149,"roup":1150,"Ġconqu":1151,"Ġunex":1152,"Ġshare":1153,"fulness":1154,"asting":1155,"uphor":1156,"Ġexh":1157,"Ġexcitement":1158,"ights":1159,"ended":1160,"Ġmyster":1161,"ionship":1162,"Excitement":1163,"Ġseries":1164,"Ġflow":1165,"Ġdetermin":1166,"Ġkindness":1167,"azz":1168,"izing":1169,"Ġloved":1170,"Attended":1171,"Ġroll":1172,"Ġglow":1173,"ggling":1174,"Ġperform":1175,"Ġvibes":1176,"Ġprom":1177,"Ġembrace":1178,"Ġempathy":1179,"avoring":1180,"Ġcanvas":1181,"Ġfree":1182,"roken":1183,"Ġmelody":1184,"pected":1185,"Ġhappiness":1186,"Ġfrag":1187,"Ġshadows":1188,"Ġclouds":1189,"Ġcompleting":1190,"Ġaccomplish":1191,"Ġtomorrow":1192,"Ġpossibilities":1193,"Joined":1194,"Particip":1195,"anchol":1196,"Ġtowards":1197,"Ad":1198,"Am":1199,"Bitter":1200,"Ch":1201,"Dis":1202,"Elation":1203,"Frust":1204,"He":1205,"Host":1206,"Hope":1207,"Jeal":1208,"Life":1209,"Loneliness":1210,"Pl":1211,"Ser":1212,"Success":1213,"Trying":1214,"che":1215,"du":1216,"ew":1217,"fel":1218,"gre":1219,"hood":1220,"line":1221,"mm":1222,"piece":1223,"rating":1224,"rate":1225,"tment":1226,"ught":1227,"ve":1228,"wa":1229,"ween":1230,"yc":1231,"ĠJ":1232,"ĠO":1233,"Ġes":1234,"Ġke":1235,"Ġits":1236,"ination":1237,"inking":1238,"Ġtre":1239,"Ġtrust":1240,"Ġob":1241,"Ġsl":1242,"Ġsw":1243,"Ġsea":1244,"ont":1245,"Ġcru":1246,"ore":1247,"Ġfair":1248,"Ġfail":1249,"Ġfilled":1250,"Ġfuel":1251,"Ġwe":1252,"Ġwea":1253,"Ġwind":1254,"Ġwinter":1255,"Ġinner":1256,"aling":1257,"Ġbur":1258,"Ġbir":1259,"Ġball":1260,"Ġbut":1261,"Ġbuil":1262,"Ġbroken":1263,"Ġmil":1264,"Ġmaking":1265,"Ġlif":1266,"Ġlearning":1267,"Ġdi":1268,"Ġdancing":1269,"Ġanticip":1270,"Ġgood":1271,"ract":1272,"Ġno":1273,"Ġnov":1274,"Ġthan":1275,"ters":1276,"Ġhid":1277,"Ġhum":1278,"Ġhues":1279,"ride":1280,"Ġforg":1281,"Ġone":1282,"old":1283,"Ġstre":1284,"Ġstud":1285,"ash":1286,"Ġreflect":1287,"ally":1288,"deur":1289,"Ġvie":1290,"Ġvict":1291,"osing":1292,"ute":1293,"Ġuncert":1294,"Ġshield":1295,"mbival":1296,"estone":1297,"estival":1298,"ooking":1299,"ems":1300,"thday":1301,"ustration":1302,"Ġspe":1303,"Ġarch":1304,"cience":1305,"Ġfrustration":1306,"flowing":1307,"ousy":1308,"Ġtimeless":1309,"Ġdecis":1310,"ign":1311,"azing":1312,"Ġdiscover":1313,"ĠMusic":1314,"Ġcompassion":1315,"orts":1316,"Ġleaves":1317,"press":1318,"Ġreson":1319,"eats":1320,"Started":1321,"Ġyears":1322,"able":1323,"weet":1324,"Ġperfect":1325,"Ġtrip":1326,"Ġnote":1327,"Ġhopeful":1328,"apturing":1329,"Ġexperienc":1330,"Ġseeds":1331,"Ġbetray":1332,"Ġbetween":1333,"Ġrealm":1334,"Ġcuriosity":1335,"Ġgolden":1336,"Ġlandscape":1337,"Ġenthusiast":1338,"Class":1339,"Spent":1340,"Ġcelebration":1341,"Ġgrief":1342,"Ġcharity":1343,"Ġconstant":1344,"avigating":1345,"Comp":1346,"joying":1347,"Ġbrighter":1348,"Ġmasterpiece":1349,"imple":1350,"Ġruins":1351,"Experiencing":1352,"appointment":1353,"ppreci":1354,"whelmed":1355,"Ġindifference":1356,"Ġoptimism":1357,"Ġgrandeur":1358,"Ġshared":1359,"uphoria":1360,"Ġaccomplishment":1361,"Heart":1362,"Hopeful":1363,"Jealousy":1364,"duct":1365,"Ġbirthday":1366,"Ġmilestone":1367,"Ġnovel":1368,"Ġhidden":1369,"Ġhuman":1370,"Ġview":1371,"Ġuncertain":1372,"mbivalence":1373,"Ġdecisions":1374,"As":1375,"Acc":1376,"Awe":1377,"Che":1378,"Cur":1379,"Dancing":1380,"Emp":1381,"Gratitude":1382,"Imm":1383,"Mel":1384,"Music":1385,"Navigating":1386,"Pro":1387,"Sur":1388,"Wandering":1389,"aic":1390,"aun":1391,"aos":1392,"ders":1393,"fting":1394,"gress":1395,"ix":1396,"ial":1397,"iking":1398,"iqu":1399,"lab":1400,"mates":1401,"nival":1402,"oic":1403,"ode":1404,"pen":1405,"pting":1406,"pons":1407,"pionship":1408,"sical":1409,"sweet":1410,"tic":1411,"taking":1412,"uz":1413,"ument":1414,"uggling":1415,"vis":1416,"xiet":1417,"yes":1418,"ze":1419,"zle":1420,"âĢ":1421,"ĠH":1422,"ĠY":1423,"ĠUn":1424,"inary":1425,"Ġtap":1426,"Ġtest":1427,"Ġtell":1428,"Ġahe":1429,"Ġall":1430,"Ġaround":1431,"Ġappreci":1432,"Ġour":1433,"erco":1434,"Ġsad":1435,"Ġsee":1436,"Ġseas":1437,"esh":1438,"ony":1439,"Ġcir":1440,"Ġcos":1441,"Ġcare":1442,"Ġcasting":1443,"athon":1444,"athed":1445,"ores":1446,"ited":1447,"Ġfear":1448,"Ġflo":1449,"Ġfire":1450,"Ġfitness":1451,"Ġfavor":1452,"Ġfans":1453,"Ġfestival":1454,"reat":1455,"Ġwild":1456,"ars":1457,"alm":1458,"alking":1459,"Ġbad":1460,"Ġbring":1461,"edit":1462,"edom":1463,"anc":1464,"anning":1465,"Ġmos":1466,"Ġmag":1467,"Ġmount":1468,"standing":1469,"Ġpet":1470,"Ġpart":1471,"Ġphot":1472,"Ġphotography":1473,"Ġpuz":1474,"Ġlive":1475,"Ġlingers":1476,"Ġdra":1477,"Ġdee":1478,"Ġdown":1479,"ises":1480,"isper":1481,"Ġgam":1482,"ravel":1483,"union":1484,"urt":1485,"ross":1486,"Ġhour":1487,"Ġhome":1488,"ease":1489,"ull":1490,"ole":1491,"olds":1492,"Ġstone":1493,"Ġremin":1494,"Ġreunion":1495,"Ġchild":1496,"Ġchaos":1497,"use":1498,"Ġconf":1499,"Ġcontentment":1500,"Ġconfusion":1501,"ersed":1502,"Ġjust":1503,"Ġheav":1504,"estry":1505,"ache":1506,"Ġnever":1507,"Int":1508,"ender":1509,"avors":1510,"thusi":1511,"ustling":1512,"Ġsports":1513,"Ġcreate":1514,"anting":1515,"Ġprogress":1516,"ibition":1517,"cial":1518,"rowning":1519,"Ġjoys":1520,"ĠSt":1521,"arked":1522,"Ġflavors":1523,"Ġdef":1524,"Ġemotional":1525,"aze":1526,"Ġdisappointment":1527,"Env":1528,"Enthusi":1529,"ized":1530,"Ġfriendship":1531,"Ġtravel":1532,"Ġtrails":1533,"Contentment":1534,"Ġroad":1535,"Ġglass":1536,"ired":1537,"Ġbreath":1538,"Ġriver":1539,"Ġworkout":1540,"Ġcarnival":1541,"Ġbecom":1542,"Ġstars":1543,"covered":1544,"Overflowing":1545,"Overwhelmed":1546,"Ġrecip":1547,"Ġrecord":1548,"Ġblooms":1549,"ĠEvery":1550,"Ġskills":1551,"ulfill":1552,"Ġunfolds":1553,"Ġexplore":1554,"identally":1555,"templ":1556,"Ġchampionship":1557,"Ġhistorical":1558,"Ġsupport":1559,"atching":1560,"Ġmoonlit":1561,"Ġpoison":1562,"Ġnumbness":1563,"Ġconquering":1564,"Ġunexpected":1565,"Ġmysteries":1566,"Ġrollerco":1567,"Ġperformance":1568,"Ġpromises":1569,"Seren":1570,"Successfully":1571,"felt":1572,"Ġfueled":1573,"Ġballroom":1574,"Ġstreet":1575,"Ġvictory":1576,"Ġresonates":1577,"Ġexperiences":1578,"Ġbetrayal":1579,"Compassion":1580,"Ġviewer":1581,"Ġuncertainty":1582,"Accidentally":1583,"Curiosity":1584,"labor":1585,"xiety":1586,"Ġtapestry":1587,"Ġahead":1588,"Ġcirc":1589,"Ġfloor":1590,"Ġmountain":1591,"Ġphoto":1592,"Ġpuzzle":1593,"Ġbreathtaking":1594,"Ġrollercoaster":1595,"'t":1596,"Arou":1597,"Blo":1598,"Celeb":1599,"Captiv":1600,"Des":1601,"Flo":1602,"IY":1603,"Just":1604,"Joy":1605,"Journey":1606,"Late":1607,"Learning":1608,"Nostalgia":1609,"Organ":1610,"Pride":1611,"Qu":1612,"Sinking":1613,"Wr":1614,"With":1615,"Witness":1616,"ble":1617,"bute":1618,"ech":1619,"ever":1620,"eering":1621,"eze":1622,"gust":1623,"ier":1624,"just":1625,"ked":1626,"ket":1627,"know":1628,"light":1629,"list":1630,"leas":1631,"mic":1632,"oir":1633,"ppl":1634,"phere":1635,"rated":1636,"sh":1637,"sal":1638,"tine":1639,"tending":1640,"tage":1641,"tual":1642,"ue":1643,"ys":1644,"yss":1645,"zy":1646,"Ġrou":1647,"ining":1648,"inding":1649,"inner":1650,"intage":1651,"Ġter":1652,"Ġtourn":1653,"Ġage":1654,"Ġawe":1655,"Ġambivalence":1656,"Ġor":1657,"Ġoce":1658,"Ġopp":1659,"ened":1660,"Ġsess":1661,"Ġsum":1662,"Ġsenior":1663,"Ġsnow":1664,"Ġsavoring":1665,"Ġscience":1666,"Ġche":1667,"Ġciv":1668,"Ġcrow":1669,"Ġcult":1670,"Ġcrush":1671,"Ġcaptiv":1672,"Ġcyc":1673,"atest":1674,"orr":1675,"ords":1676,"orning":1677,"itary":1678,"Ġfes":1679,"Ġfil":1680,"Ġfingers":1681,"Ġwas":1682,"Ġwall":1683,"Ġweat":1684,"Ġwitness":1685,"Ġinjust":1686,"ard":1687,"ale":1688,"Ġbo":1689,"Ġbest":1690,"Ġbound":1691,"Ġbless":1692,"edy":1693,"Ġmark":1694,"Ġmiss":1695,"Ġmaze":1696,"Ġmorning":1697,"stru":1698,"Ġpos":1699,"Ġloss":1700,"Ġlatest":1701,"Ġeuphoria":1702,"Ġeyes":1703,"ely":1704,"elling":1705,"iles":1706,"iliz":1707,"ilience":1708,"ceived":1709,"ication":1710,"icting":1711,"Ġgrace":1712,"Ġgroup":1713,"Ġgrate":1714,"Ġnurt":1715,"unt":1716,"tern":1717,"Ġhop":1718,"Ġhair":1719,"Ġhands":1720,"Ġhiking":1721,"verence":1722,"verse":1723,"verber":1724,"riends":1725,"Ġforest":1726,"Ġonce":1727,"Ġonline":1728,"irst":1729,"irtual":1730,"olog":1731,"Ġstate":1732,"Ġstru":1733,"Ġstage":1734,"asking":1735,"Ġrem":1736,"Ġret":1737,"Ġreach":1738,"Ġrefus":1739,"Ġreverber":1740,"iving":1741,"imsical":1742,"roud":1743,"Ġconfl":1744,"Ġcontempl":1745,"play":1746,"iful":1747,"aller":1748,"Ġval":1749,"Ġvirtual":1750,"ured":1751,"Ġjuggling":1752,"Ġunknow":1753,"aps":1754,"Ġexam":1755,"Ġheal":1756,"empting":1757,"idence":1758,"Ġatmos":1759,"Ġspring":1760,"pert":1761,"perfect":1762,"Ġarom":1763,"indro":1764,"Ġprof":1765,"Ġheartb":1766,"Ġheartache":1767,"Ġchallenge":1768,"Ġaffect":1769,"Ġfresh":1770,"Ġintric":1771,"velop":1772,"Ġtimes":1773,"Embarked":1774,"Reverence":1775,"Ġkit":1776,"Ġbeautiful":1777,"armony":1778,"Ġpaints":1779,"Ġcompet":1780,"Enjoying":1781,"Ġabyss":1782,"ĠChe":1783,"Ġgardener":1784,"Ġrespons":1785,"Ġresilience":1786,"Ġraindro":1787,"Ġimag":1788,"Ġimperfect":1789,"Ġclassmates":1790,"Attempting":1791,"Ġtalent":1792,"Conf":1793,"akes":1794,"Ġsolitary":1795,"lessly":1796,"Ġachieving":1797,"Ġbreeze":1798,"Ġplayful":1799,"Ġride":1800,"Ġtribute":1801,"Ġcoff":1802,"Ġcozy":1803,"Ġpeaks":1804,"Ġsec":1805,"Ġstarg":1806,"hotographer":1807,"ward":1808,"ency":1809,"Ġwave":1810,"Ġevents":1811,"Ġunderstanding":1812,"rokes":1813,"Ġpeaceful":1814,"Ġmelodies":1815,"Ġbittersweet":1816,"Ġtranquility":1817,"Ġenthusiasm":1818,"Artist":1819,"ooth":1820,"Ġcaught":1821,"Ġwonder":1822,"Ġwonders":1823,"Ġrelease":1824,"Ġtwist":1825,"Ġmarvel":1826,"Ġmarathon":1827,"Ġgrowth":1828,"raced":1829,"Ġvastness":1830,"Shattered":1831,"Ġsmiles":1832,"Ġsnack":1833,"Ġwrong":1834,"Ġdelight":1835,"otten":1836,"Ġexhibition":1837,"Ġflowers":1838,"Ġdetermination":1839,"Ġfragments":1840,"Participating":1841,"ancholy":1842,"Bitterness":1843,"Hosted":1844,"Play":1845,"gret":1846,"Ġtreas":1847,"Ġfairy":1848,"Ġweight":1849,"Ġweaving":1850,"Ġanticipation":1851,"Ġforgotten":1852,"Ġarchit":1853,"Ġdiscovering":1854,"Empower":1855,"Immersed":1856,"Melancholy":1857,"ique":1858,"âĢĶ":1859,"ĠYou":1860,"Ġsadness":1861,"Ġcosmos":1862,"Ġfavorite":1863,"almness":1864,"editation":1865,"Ġmosaic":1866,"Ġmagic":1867,"Ġparty":1868,"Ġgaming":1869,"Ġhours":1870,"Ġchildhood":1871,"useum":1872,"Ġheavy":1873,"enderness":1874,"Enthusiasm":1875,"Ġbecomes":1876,"Ġrecipe":1877,"ulfillment":1878,"Ġpoisoning":1879,"Serenity":1880,"Arousal":1881,"Celebrating":1882,"Captivated":1883,"Floating":1884,"Ġroutine":1885,"Ġtournament":1886,"Ġocean":1887,"Ġsession":1888,"Ġseniors":1889,"Ġciviliz":1890,"Ġcrowd":1891,"Ġcaptivating":1892,"Ġwalls":1893,"Ġinjustice":1894,"Ġmarket":1895,"Ġposit":1896,"Ġconflicting":1897,"Ġunknown":1898,"Ġatmosphere":1899,"Ġintricate":1900,"Ġcoffee":1901,"'.":1902,"Bor":1903,"Book":1904,"Bathed":1905,"Basking":1906,"Co":1907,"Col":1908,"Cooking":1909,"Day":1910,"Dism":1911,"Drowning":1912,"Fac":1913,"Finding":1914,"Got":1915,"Garden":1916,"Hel":1917,"Harmony":1918,"La":1919,"Mem":1920,"Miss":1921,"Night":1922,"New":1923,"Photography":1924,"Proud":1925,"Photographer":1926,"Res":1927,"Sending":1928,"Savoring":1929,"Tri":1930,"Tears":1931,"Torn":1932,"Tenderness":1933,"Vib":1934,"Wine":1935,"Week":1936,"ae":1937,"aj":1938,"act":1939,"ading":1940,"awn":1941,"awa":1942,"bb":1943,"bul":1944,"ball":1945,"bum":1946,"back":1947,"con":1948,"cra":1949,"cends":1950,"do":1951,"dom":1952,"eer":1953,"ean":1954,"eers":1955,"fted":1956,"gn":1957,"gy":1958,"ger":1959,"gance":1960,"ho":1961,"hine":1962,"ian":1963,"iant":1964,"ma":1965,"ob":1966,"oaring":1967,"por":1968,"ped":1969,"pend":1970,"ren":1971,"ron":1972,"rise":1973,"ser":1974,"tion":1975,"tain":1976,"time":1977,"ump":1978,"uage":1979,"uck":1980,"uff":1981,"vo":1982,"ved":1983,"vast":1984,"vice":1985,"wor":1986,"well":1987,"zure":1988,"ĠR":1989,"Ġed":1990,"Ġess":1991,"Ġic":1992,"Ġut":1993,"Ġill":1994,"ĠEx":1995,"Ġign":1996,"Ĵª":1997,"Ġton":1998,"Ġtun":1999,"Ġtending":2000,"Ġtelling":2001,"Ġaut":2002,"Ġaud":2003,"Ġawa":2004,"Ġazure":2005,"hes":2006,"Ġod":2007,"Ġown":2008,"Ġorgan":2009,"Ġopen":2010,"ergy":2011,"enom":2012,"Ġsound":2013,"Ġsail":2014,"Ġsowing":2015,"Ġsimple":2016,"Ġcul":2017,"Ġcost":2018,"Ġcand":2019,"Ġcott":2020,"ater":2021,"aters":2022,"oriz":2023,"iter":2024,"ital":2025,"Ġfut":2026,"Ġfoot":2027,"Ġfaces":2028,"Ġfull":2029,"Ġfirst":2030,"red":2031,"Ġway":2032,"Ġwine":2033,"Ġwound":2034,"Ġweb":2035,"Ġwings":2036,"Ġwandering":2037,"Ġwaters":2038,"Ġinde":2039,"alancing":2040,"Ġbeats":2041,"Ġbustling":2042,"Ġbalancing":2043,"ancer":2044,"Ġmon":2045,"Ġmost":2046,"Ġmake":2047,"Ġmode":2048,"Ġmeditation":2049,"Ġmuseum":2050,"Ġmaj":2051,"stac":2052,"stron":2053,"Ġpark":2054,"Ġling":2055,"Ġless":2056,"Ġlur":2057,"Ġliv":2058,"Ġlear":2059,"Ġloneliness":2060,"Ġlecture":2061,"Ġluck":2062,"Ġdo":2063,"Ġdri":2064,"Ġdear":2065,"Ġdist":2066,"Ġdinner":2067,"Ġdawn":2068,"ently":2069,"Ġele":2070,"Ġeff":2071,"ising":2072,"iscing":2073,"iscovered":2074,"isdom":2075,"omy":2076,"elong":2077,"Ġann":2078,"Ġany":2079,"Ġanot":2080,"Ġanxiety":2081,"ility":2082,"essure":2083,"ics":2084,"icing":2085,"icity":2086,"icks":2087,"Ġgu":2088,"Ġgra":2089,"Ġgem":2090,"Ġgaller":2091,"Ġgently":2092,"Ġtoday":2093,"Ġnavig":2094,"und":2095,"unch":2096,"unday":2097,"urn":2098,"tering":2099,"Ġhav":2100,"Ġhand":2101,"Ġhits":2102,"Ġhaun":2103,"Ġhoriz":2104,"ead":2105,"eaking":2106,"ety":2107,"etra":2108,"etime":2109,"rid":2110,"rig":2111,"ulner":2112,"Ġones":2113,"Ġonly":2114,"iring":2115,"olunt":2116,"Ġstay":2117,"Ġstain":2118,"Ġstanding":2119,"otic":2120,"asy":2121,"asing":2122,"Ġread":2123,"Ġreco":2124,"Ġreceived":2125,"ivated":2126,"imes":2127,"Ġchill":2128,"Ġcharm":2129,"Ġconvers":2130,"arting":2131,"place":2132,"ame":2133,"ift":2134,"Ġvenom":2135,"Ġvulner":2136,"uty":2137,"Ġunique":2138,"aste":2139,"uption":2140,"Ġexpect":2141,"Ġexpress":2142,"ips":2143,"Ġhead":2144,"Ġheights":2145,"Ġrun":2146,"Ġrest":2147,"acters":2148,"Ġcomments":2149,"Ġcomedy":2150,"ided":2151,"Ġattem":2152,"ove":2153,"assured":2154,"Ġspect":2155,"ounce":2156,"Ġproving":2157,"Ġproduct":2158,"cious":2159,"ciety":2160,"umin":2161,"Ġwhisper":2162,"Ġwhole":2163,"Ġplaces":2164,"Ġplanting":2165,"Ġjoyous":2166,"venture":2167,"ĠAd":2168,"ĠArt":2169,"ousel":2170,"Ġdays":2171,"SeniorR":2172,"SeniorPhotographer":2173,"coa":2174,"covery":2175,"Ġovercoming":2176,"Ġfloo":2177,"Ġflag":2178,"Ġflipping":2179,"Ġmeal":2180,"Ġmean":2181,"Ġdeb":2182,"Embraced":2183,"igital":2184,"Ġechoing":2185,"Ġemotion":2186,"Ġador":2187,"Ġdisc":2188,"Ġdisplay":2189,"Ġdiscovery":2190,"spired":2191,"Ġsunrise":2192,"Ġpainful":2193,"ortun":2194,"Ġlead":2195,"Ġleads":2196,"ooked":2197,"waying":2198,"Ġresentment":2199,"Ġrace":2200,"Ġimport":2201,"Ġimpress":2202,"Ġcreates":2203,"rapped":2204,"arewell":2205,"Ġtrad":2206,"Ġtrail":2207,"Confusion":2208,"Ġyou":2209,"Ġyear":2210,"Ġench":2211,"Ġenergy":2212,"ability":2213,"ails":2214,"ggles":2215,"necting":2216,"Ġquest":2217,"capes":2218,"capade":2219,"eps":2220,"Ġtriump":2221,"Ġcoding":2222,"Ġcocoa":2223,"Ġblog":2224,"Ġexperiment":2225,"Ġexperience":2226,"Ġexperiencing":2227,"ĠDis":2228,"ĠDIY":2229,"Ġturning":2230,"Ġtransp":2231,"Ġsilence":2232,"Ġmelanchol":2233,"Ġmindfulness":2234,"Ġadventures":2235,"Ġscen":2236,"Ġscattered":2237,"Ġscaling":2238,"Ġcarrying":2239,"Ġcarousel":2240,"Ġpressure":2241,"Ġembracing":2242,"issive":2243,"Ġconnections":2244,"Ġsunshine":2245,"ĠFriends":2246,"Ġacts":2247,"Ġaction":2248,"anging":2249,"anguage":2250,"Ġreality":2251,"Dec":2252,"Determin":2253,"Devast":2254,"ields":2255,"Ġsoaring":2256,"Ġsociety":2257,"Ġsets":2258,"Ġsetback":2259,"Ġcurr":2260,"Ġblooming":2261,"ticipating":2262,"Ġlandscapes":2263,"Ġthrilling":2264,"Ġstorms":2265,"rounded":2266,"Club":2267,"ĠðŁİ":2268,"ĠðŁĲ":2269,"ĠðŁĴª":2270,"Ġcaus":2271,"Ġrelent":2272,"Ġcharacters":2273,"Ġconstell":2274,"Ġtwirling":2275,"Ġfalling":2276,"Ġlonging":2277,"Ġhistoric":2278,"Whispers":2279,"Ġengulf":2280,"Ġalbum":2281,"Ġsnaps":2282,"Ġgoals":2283,"versity":2284,"Ġdetermined":2285,"Ġfragile":2286,"Participated":2287,"Adm":2288,"Amidst":2289,"Frustration":2290,"Frustrated":2291,"chen":2292,"Ġescapade":2293,"Ġkey":2294,"Ġobser":2295,"Ġobstac":2296,"Ġslipping":2297,"Ġswirling":2298,"Ġburst":2299,"Ġbuilding":2300,"Ġlifetime":2301,"racticing":2302,"Ġstudy":2303,"ashion":2304,"Ġcompassionate":2305,"Ġrealms":2306,"Heartfelt":2307,"Chef":2308,"oices":2309,"visiting":2310,"Ġtestament":2311,"Ġtells":2312,"Ġappreciation":2313,"Ġseason":2314,"ances":2315,"Ġdrama":2316,"Ġdeep":2317,"Ġconfidence":2318,"Ġdefeat":2319,"Envious":2320,"laborating":2321,"Ġmountaineer":2322,"Organizing":2323,"echn":2324,"ppla":2325,"Ġopportun":2326,"Ġcycling":2327,"Ġweather":2328,"Ġboundless":2329,"struck":2330,"Ġnurturing":2331,"Ġretreat":2332,"Ġreaching":2333,"Ġreverberate":2334,"Ġcontemplation":2335,"Ġexams":2336,"Ġaroma":2337,"Ġaffection":2338,"Ġfreshly":2339,"Ġkitchen":2340,"Ġcompetition":2341,"Ġresponsibilities":2342,"Ġraindrops":2343,"Ġimagination":2344,"Ġimperfections":2345,"Ġsecre":2346,"Ġstargazing":2347,"Ġtwists":2348,"Ġmarvels":2349,"Playfully":2350,"Ġtreasure":2351,"Ġarchitecture":2352,"Empowerment":2353,"Ġcivilization":2354,"Ġpositive":2355,"Boredom":2356,"Collaborating":2357,"Dismissive":2358,"Facing":2359,"Laughter":2360,"Missing":2361,"Proudly":2362,"Resentment":2363,"Vibes":2364,"Weekend":2365,"awaited":2366,"gnition":2367,"porting":2368,"pendence":2369,"Ġedge":2370,"Ġessence":2371,"Ġillumin":2372,"ĠExpert":2373,"Ġtonight":2374,"Ġaudience":2375,"Ġculinary":2376,"Ġcandy":2377,"Ġcotton":2378,"Ġfuture":2379,"Ġindependence":2380,"stronomy":2381,"Ġlurking":2382,"Ġlearn":2383,"Ġdistant":2384,"Ġelegance":2385,"Ġanother":2386,"Ġnavigate":2387,"Ġhave":2388,"Ġrecognition":2389,"Ġconversation":2390,"Ġvulnerability":2391,"Ġexpectations":2392,"Ġattempt":2393,"assuredness":2394,"Ġtriumph":2395,"Ġmelancholic":2396,"ĠFriendship":2397,"Determination":2398,"Devastated":2399,"Ġsnapshot":2400,"+!":2401,"Af":2402,"Ag":2403,"Achie":2404,"Appre":2405,"Ambivalence":2406,"Avo":2407,"Bea":2408,"Ca":2409,"Cre":2410,"Cyc":2411,"Capturing":2412,"Calmness":2413,"Dr":2414,"Dri":2415,"Dance":2416,"Dancer":2417,"Emot":2418,"Euphoria":2419,"Fl":2420,"Fear":2421,"Family":2422,"Fulfillment":2423,"Gri":2424,"Gam":2425,"Group":2426,"Gazing":2427,"Hav":2428,"High":2429,"Home":2430,"Haun":2431,"Jazz":2432,"Kindness":2433,"Like":2434,"Mar":2435,"Master":2436,"Mode":2437,"Nature":2438,"Numb":2439,"Per":2440,"Pain":2441,"Practicing":2442,"Red":2443,"Rad":2444,"Roc":2445,"School":2446,"Sipping":2447,"Soaring":2448,"Suff":2449,"Sunday":2450,"Swaying":2451,"Tra":2452,"Tran":2453,"Travel":2454,"Vintage":2455,"Winter":2456,"Wrapped":2457,"Yearning":2458,"aw":2459,"ax":2460,"aur":2461,"aith":2462,"aim":2463,"aust":2464,"away":2465,"aiting":2466,"bl":2467,"bo":2468,"bor":2469,"bst":2470,"book":2471,"cal":2472,"cter":2473,"cut":2474,"coun":2475,"cher":2476,"ched":2477,"cope":2478,"cade":2479,"cooked":2480,"dles":2481,"dits":2482,"down":2483,"eter":2484,"ft":2485,"fore":2486,"fact":2487,"ges":2488,"gone":2489,"gument":2490,"gency":2491,"hance":2492,"ik":2493,"io":2494,"iat":2495,"ira":2496,"iers":2497,"ians":2498,"iverse":2499,"ju":2500,"kin":2501,"kes":2502,"kfulness":2503,"kward":2504,"low":2505,"lived":2506,"me":2507,"ms":2508,"mit":2509,"met":2510,"mark":2511,"mooth":2512,"ns":2513,"nis":2514,"nic":2515,"nant":2516,"noon":2517,"nois":2518,"oking":2519,"oak":2520,"pe":2521,"par":2522,"pro":2523,"pet":2524,"part":2525,"phon":2526,"pense":2527,"paring":2528,"pite":2529,"rit":2530,"ral":2531,"ris":2532,"rend":2533,"sol":2534,"sions":2535,"the":2536,"tra":2537,"tle":2538,"tell":2539,"tles":2540,"tang":2541,"tress":2542,"ued":2543,"uch":2544,"ven":2545,"val":2546,"vir":2547,"vived":2548,"vails":2549,"wing":2550,"warm":2551,"watching":2552,"wkward":2553,"yot":2554,"yric":2555,"zest":2556,"¤ï":2557,"¸ı":2558,"Ã©":2559,"âĿ":2560,"ĠV":2561,"ĠZ":2562,"Ġgh":2563,"ĠIn":2564,"Ġid":2565,"Ġult":2566,"ĠQu":2567,"Ġzest":2568,"ĠâĿ":2569,"ini":2570,"ines":2571,"inds":2572,"inem":2573,"inning":2574,"inspired":2575,"Ġten":2576,"Ġtou":2577,"Ġtall":2578,"Ġtight":2579,"Ġtapp":2580,"Ġtru":2581,"Ġtire":2582,"Ġtex":2583,"Ġtake":2584,"Ġtaste":2585,"Ġtechn":2586,"Ġappla":2587,"Ġastronomy":2588,"Ġakin":2589,"heart":2590,"hetic":2591,"hens":2592,"inge":2593,"Ġop":2594,"Ġthem":2595,"ert":2596,"ered":2597,"erLife":2598,"ener":2599,"enew":2600,"Ġoff":2601,"Ġsal":2602,"Ġsent":2603,"Ġsus":2604,"Ġsip":2605,"Ġsle":2606,"Ġsack":2607,"Ġsigh":2608,"Ġsite":2609,"Ġsome":2610,"Ġsimpl":2611,"Ġseats":2612,"esmer":2613,"ond":2614,"oner":2615,"onch":2616,"onment":2617,"onder":2618,"Ġcart":2619,"Ġcam":2620,"Ġcac":2621,"Ġcour":2622,"Ġcry":2623,"Ġcount":2624,"Ġcute":2625,"Ġcapturing":2626,"Ġcathed":2627,"Ġcross":2628,"Ġcorr":2629,"Ġcalmness":2630,"Ġcinem":2631,"atis":2632,"atic":2633,"atur":2634,"ators":2635,"oring":2636,"orld":2637,"ites":2638,"Ġfur":2639,"Ġfol":2640,"Ġfant":2641,"Ġfind":2642,"Ġfeel":2643,"Ġfell":2644,"Ġfood":2645,"Ġfield":2646,"Ġfier":2647,"Ġfulfillment":2648,"Ġfarewell":2649,"Ġfields":2650,"Ġfashion":2651,"Ġfaith":2652,"ree":2653,"reen":2654,"reak":2655,"Ġwal":2656,"Ġwist":2657,"Ġwell":2658,"Ġwalking":2659,"Ġwatching":2660,"Ġwisdom":2661,"Ġwaiting":2662,"Ġwinds":2663,"Ġinform":2664,"ards":2665,"arity":2666,"aries":2667,"arad":2668,"arder":2669,"alk":2670,"aline":2671,"Ġbit":2672,"Ġbas":2673,"Ġbrou":2674,"Ġbus":2675,"Ġbid":2676,"Ġbak":2677,"Ġbrush":2678,"Ġbold":2679,"edication":2680,"anes":2681,"ange":2682,"antern":2683,"Ġmed":2684,"Ġment":2685,"Ġmis":2686,"Ġmess":2687,"Ġmet":2688,"Ġmade":2689,"Ġmural":2690,"Ġmix":2691,"Ġmund":2692,"Ġmuch":2693,"stra":2694,"storm":2695,"stand":2696,"stination":2697,"strokes":2698,"stances":2699,"Ġpen":2700,"Ġpal":2701,"Ġpot":2702,"Ġpass":2703,"Ġphy":2704,"Ġpub":2705,"Ġpush":2706,"Ġpower":2707,"Ġpiece":2708,"Ġpride":2709,"Ġpeers":2710,"ould":2711,"Ġlet":2712,"Ġlim":2713,"Ġlast":2714,"Ġlie":2715,"Ġlight":2716,"Ġland":2717,"Ġlights":2718,"Ġlanguage":2719,"Ġlyric":2720,"Ġlantern":2721,"ioning":2722,"Ġdou":2723,"Ġdet":2724,"Ġdid":2725,"Ġdoc":2726,"Ġdail":2727,"Ġdiffer":2728,"Ġdress":2729,"Ġdazz":2730,"Ġdull":2731,"Ġdrowning":2732,"Ġdue":2733,"Ġdigital":2734,"Ġdedication":2735,"ential":2736,"Ġeat":2737,"isoner":2738,"omer":2739,"omet":2740,"ele":2741,"Ġantic":2742,"Ġanthe":2743,"essness":2744,"essions":2745,"ich":2746,"ick":2747,"icult":2748,"icious":2749,"icnic":2750,"Ġget":2751,"Ġgain":2752,"Ġgest":2753,"Ġgone":2754,"Ġgems":2755,"Ġgift":2756,"Ġgener":2757,"Ġtoo":2758,"Ġtox":2759,"Ġtoss":2760,"Ġnow":2761,"Ġnonch":2762,"under":2763,"Ġthrow":2764,"Ġthunder":2765,"charted":2766,"roll":2767,"roads":2768,"roves":2769,"rope":2770,"Ġhas":2771,"Ġhate":2772,"Ġhold":2773,"Ġharder":2774,"cturn":2775,"ctivated":2776,"rift":2777,"Ġwithout":2778,"Ġforever":2779,"Ġfortress":2780,"ults":2781,"Ġstart":2782,"Ġstill":2783,"Ġstand":2784,"Ġstring":2785,"Ġstoic":2786,"Ġsteering":2787,"Ġstrokes":2788,"Ġstrid":2789,"menting":2790,"Ġref":2791,"Ġrevel":2792,"Ġregret":2793,"ives":2794,"ivities":2795,"imid":2796,"imate":2797,"imum":2798,"immer":2799,"Ġchords":2800,"Ġchoices":2801,"Ġchange":2802,"used":2803,"ussions":2804,"Ġcons":2805,"Ġconse":2806,"Ġconnois":2807,"plessness":2808,"ami":2809,"iff":2810,"Ġbygone":2811,"Ġvan":2812,"Ġvent":2813,"Ġvis":2814,"Ġvac":2815,"Ġvintage":2816,"Ġvolunt":2817,"ose":2818,"oscope":2819,"Ġjourn":2820,"Ġjazz":2821,"Ġunb":2822,"Ġunity":2823,"Ġunlo":2824,"Ġunve":2825,"Ġunravel":2826,"Ġunleas":2827,"Ġuniverse":2828,"Ġuncharted":2829,"aper":2830,"Ġshores":2831,"Ġshame":2832,"Ġshards":2833,"Ġshould":2834,"upts":2835,"Ġexp":2836,"Ġexotic":2837,"Ġheated":2838,"Ġrush":2839,"Ġrustling":2840,"Ġrenew":2841,"Ġclosing":2842,"Ġclean":2843,"Ġclaim":2844,"Ġcloak":2845,"Ġneed":2846,"Ġneigh":2847,"InAg":2848,"idoscope":2849,"ateful":2850,"quations":2851,"Ġspent":2852,"Ġspark":2853,"Ġspaces":2854,"Ġspeaking":2855,"ops":2856,"ophony":2857,"seat":2858,"seur":2859,"agement":2860,"dern":2861,"Ġcredits":2862,"Excit":2863,"Ġargument":2864,"Ġword":2865,"leys":2866,"Ġheartfelt":2867,"Ġheartwarm":2868,"ible":2869,"umn":2870,"umes":2871,"umors":2872,"umstances":2873,"Ġlake":2874,"hering":2875,"Ġfront":2876,"ccer":2877,"Ġwhimsical":2878,"Ġpleas":2879,"Ġplace":2880,"Ġplanning":2881,"flies":2882,"ĠAn":2883,"ĠAge":2884,"ĠAcade":2885,"ĠAwkward":2886,"ĠActivated":2887,"reaming":2888,"Ġservice":2889,"ĠSh":2890,"ĠSw":2891,"ĠScience":2892,"ĠSimple":2893,"ĠSmooth":2894,"ĠSatur":2895,"ĠSomet":2896,"plored":2897,"SeniorSt":2898,"SeniorMusic":2899,"SeniorArtist":2900,"SeniorDancer":2901,"Ġupon":2902,"Ġafternoon":2903,"hered":2904,"Ġovercom":2905,"Ġoverwhelm":2906,"Ġmeeting":2907,"Regret":2908,"Revisiting":2909,"Reju":2910,"Ġkale":2911,"oryL":2912,"azer":2913,"Ġadren":2914,"Ġadrift":2915,"Ġdisgust":2916,"ĠMax":2917,"Ġpainted":2918,"acky":2919,"Ġcomposing":2920,"Encoun":2921,"orted":2922,"Ġleading":2923,"prin":2924,"ways":2925,"ĠCh":2926,"ĠCapturing":2927,"ellb":2928,"Ġresults":2929,"ock":2930,"Ġrabb":2931,"Ġimpen":2932,"Ġdesire":2933,"Ġdescends":2934,"Ġcreative":2935,"ruggles":2936,"Ġfinal":2937,"Ġfinds":2938,"Ġfinished":2939,"Ġfinals":2940,"Ġclasses":2941,"Ġclassic":2942,"Ġclassroom":2943,"Ġserenade":2944,"Standing":2945,"Struggles":2946,"Concert":2947,"aker":2948,"Ġyet":2949,"Ġyearning":2950,"Ġenvelop":2951,"Ġenhance":2952,"Ġenvir":2953,"TeenLife":2954,"gging":2955,"Ġteacher":2956,"Ġachieve":2957,"Ġcold":2958,"Ġbread":2959,"Ġbreak":2960,"Ġmemory":2961,"Ġperpet":2962,"Ġplayer":2963,"Ġplayed":2964,"munication":2965,"Ġrival":2966,"Ġoutdo":2967,"ossom":2968,"Ġworksh":2969,"Ġturbul":2970,"Ġseem":2971,"Ġseems":2972,"rink":2973,"Ġacross":2974,"Ġinspired":2975,"Ġbefore":2976,"Ġprisoner":2977,"ĠPro":2978,"ĠPop":2979,"Ġactor":2980,"Ġactivities":2981,"enched":2982,"Ġevoking":2983,"Ġempty":2984,"ishing":2985,"rounds":2986,"Dealing":2987,"ĠLad":2988,"ĠLearning":2989,"ĠWorld":2990,"Ġsoccer":2991,"Ġsettles":2992,"Ġcurtain":2993,"Ġfreedom":2994,"Ġfreely":2995,"Ġlocked":2996,"Ġgolf":2997,"Ġgolfer":2998,"eft":2999,"wheel":3000,"elessness":3001,"Ġhistory":3002,"Ġhappening":3003,"Ġstorytell":3004,"Ġquietude":3005,"ArtLover":3006,"ArtClass":3007,"mergency":3008,"Ġcaf":3009,"Ġcelebrating":3010,"Ġprevails":3011,"Ġgrips":3012,"Ġunfores":3013,"Ġshades":3014,"Ġexploration":3015,"Ġcomplex":3016,"Ġachievements":3017,"Ġaccomplished":3018,"Community":3019,"uilding":3020,"ĠNature":3021,"ĠNostalgia":3022,"Ġendless":3023,"Ġendlessly":3024,"Ġblan":3025,"Ġblossom":3026,"Ġbright":3027,"aneous":3028,"Ġmusicians":3029,"Ġgrows":3030,"Ġchamber":3031,"Ġruin":3032,"Experimenting":3033,"Ġartistic":3034,"Ġartistry":3035,"appointed":3036,"Ġindifferent":3037,"Anxiety":3038,"Anticipating":3039,"Sharing":3040,"Whisper":3041,"Whimsical":3042,"ĠGran":3043,"ĠKyot":3044,"Ġera":3045,"Ġeras":3046,"Ġerupts":3047,"Ġalleys":3048,"Ġalways":3049,"Ġamus":3050,"Ġamid":3051,"Ġamidst":3052,"Ġsmooth":3053,"Ġsupporting":3054,"Ġsorrows":3055,"Ġcrafting":3056,"Ġcrash":3057,"Ġcrafted":3058,"Ġwriting":3059,"Ġbackseat":3060,"Ġpoisons":3061,"Ġdelicious":3062,"Ġgoal":3063,"Ġnumber":3064,"Ġhighlight":3065,"Ġunexplored":3066,"Ġexhaust":3067,"Ġperformer":3068,"Ġfreez":3069,"Adventure":3070,"Amused":3071,"Chasing":3072,"Charting":3073,"Disgust":3074,"Disappointed":3075,"Planning":3076,"chestra":3077,"ĠOops":3078,"Ġescape":3079,"ontaneous":3080,"Ġcruise":3081,"Ġcrucial":3082,"Ġburning":3083,"Ġbuilds":3084,"Ġlifelong":3085,"Ġdiary":3086,"Ġdiverse":3087,"Ġdiversity":3088,"Ġnoise":3089,"Ġnocturn":3090,"Ġthankfulness":3091,"Ġstudio":3092,"Ġspeed":3093,"Ġspecial":3094,"Ġspecter":3095,"Ġarchae":3096,"Ġhumanity":3097,"Product":3098,"Surrounded":3099,"Survived":3100,"ĠHateful":3101,"ĠUnleas":3102,"Ġappreciating":3103,"Ġseeking":3104,"Ġseaside":3105,"Ġfireflies":3106,"Ġbrings":3107,"anced":3108,"Ġpetals":3109,"Ġdrawn":3110,"Ġdeeper":3111,"Ġreminder":3112,"Ġreminiscing":3113,"Intimid":3114,"Envy":3115,"Ġfriendships":3116,"Ġtraveler":3117,"Ġsupportive":3118,"Ġcircus":3119,"Ġcircumstances":3120,"Blogg":3121,"Despair":3122,"Joyful":3123,"Writing":3124,"Witnessing":3125,"Witnessed":3126,"ketball":3127,"Ġorchestra":3128,"Ġsummer":3129,"Ġsummit":3130,"Ġsnowfl":3131,"Ġchest":3132,"Ġcultural":3133,"Ġfesters":3134,"Ġfestering":3135,"Ġwashes":3136,"Ġwitnessed":3137,"Ġboat":3138,"Ġblessings":3139,"Ġmissed":3140,"Ġgrateful":3141,"Ġgratefulness":3142,"Ġhopes":3143,"Ġhopelessness":3144,"ology":3145,"ological":3146,"Ġstruggling":3147,"Ġrefuses":3148,"Ġhealth":3149,"Ġprofound":3150,"Ġheartbeat":3151,"Ġheartbreak":3152,"ĠCheers":3153,"Confident":3154,"Ġsnacks":3155,"Coding":3156,"Helplessness":3157,"Tried":3158,"WineLover":3159,"crastination":3160,"work":3161,"Ġutter":3162,"Ġigniting":3163,"Ġtunes":3164,"Ġautumn":3165,"Ġawait":3166,"Ġodds":3167,"Ġorganized":3168,"Ġsailor":3169,"Ġmajor":3170,"Ġlingering":3171,"Ġlessons":3172,"Ġlively":3173,"Ġdriving":3174,"Ġeffort":3175,"Ġannounce":3176,"Ġanyway":3177,"Ġguiding":3178,"Ġgallery":3179,"Ġhorizon":3180,"etrable":3181,"rigami":3182,"Ġstaining":3183,"Ġreader":3184,"Ġchilly":3185,"Ġvenomous":3186,"Ġspectators":3187,"ĠAdele":3188,"Ġfloods":3189,"Ġdebate":3190,"Ġadoration":3191,"Ġdiscussions":3192,"Ġimportant":3193,"Ġtradition":3194,"Ġenchanting":3195,"Ġtransported":3196,"Ġscenic":3197,"Decided":3198,"Ġcurrent":3199,"ĠðŁĲ¾":3200,"Ġcauses":3201,"Ġrelentlessly":3202,"Ġconstellations":3203,"Ġengulfs":3204,"Admiring":3205,"Ġobstacles":3206,"Ġdeepens":3207,"Ġopportunities":3208,"Ġaffectionate":3209,"Ġsecrets":3210,"Ġilluminating":3211,"Ġattempts":3212,"Apprehens":3213,"Avoiding":3214,"Beauty":3215,"Caught":3216,"Creating":3217,"Drenched":3218,"Drifting":3219,"Emotional":3220,"Fearful":3221,"Grief":3222,"Having":3223,"HighSchool":3224,"Haunted":3225,"NaturePhotography":3226,"Perfect":3227,"Rediscovered":3228,"Radiant":3229,"Rocking":3230,"Tranquil":3231,"aws":3232,"blems":3233,"board":3234,"borhood":3235,"cutive":3236,"faction":3237,"lowers":3238,"provement":3239,"venated":3240,"¤ï¸ı":3241,"Ġghost":3242,"Ġideas":3243,"Ġultimate":3244,"ĠâĿ¤ï¸ı":3245,"Ġtennis":3246,"Ġtightrope":3247,"Ġtapping":3248,"Ġtrue":3249,"Ġtext":3250,"Ġsalty":3251,"Ġsuspense":3252,"Ġsleep":3253,"Ġsimplicity":3254,"Ġcacophony":3255,"Ġcourse":3256,"Ġcathedral":3257,"Ġcrossroads":3258,"Ġcorruption":3259,"Ġcinematic":3260,"atisfaction":3261,"Ġfollowers":3262,"Ġfeels":3263,"Ġfellow":3264,"Ġwistful":3265,"Ġbasketball":3266,"Ġbrought":3267,"Ġbidding":3268,"Ġbaked":3269,"Ġbrushstrokes":3270,"Ġmundane":3271,"Ġpubl":3272,"Ġpushing":3273,"Ġletter":3274,"Ġlandmark":3275,"Ġlyrics":3276,"Ġdocument":3277,"Ġdaily":3278,"Ġantics":3279,"Ġgetaway":3280,"Ġgestures":3281,"Ġtossing":3282,"Ġnonchal":3283,"Ġthrows":3284,"Ġstillness":3285,"Ġstrides":3286,"Ġrevelation":3287,"Ġconsecutive":3288,"Ġconnoisseur":3289,"Ġvacation":3290,"Ġjournal":3291,"Ġunveils":3292,"Ġunleash":3293,"Ġshoulders":3294,"Ġrenewed":3295,"Ġneighborhood":3296,"InAging":3297,"Excited":3298,"Ġheartwarming":3299,"ĠAcademic":3300,"ĠSaturday":3301,"ĠSometimes":3302,"Ġovercome":3303,"Rejuvenated":3304,"Ġkaleidoscope":3305,"Ġadrenaline":3306,"Ġdisgusting":3307,"ĠMaximum":3308,"Ġrabbit":3309,"Ġimpenetrable":3310,"Ġenvironment":3311,"Ġperpetual":3312,"Ġoutdoors":3313,"Ġworkshop":3314,"Ġturbulence":3315,"Ġstoryteller":3316,"Ġunforeseen":3317,"Whispering":3318,"ĠKyoto":3319,"Ġhighlighting":3320,"Ġexhaustion":3321,"Ġnocturne":3322,"Ġarchaeological":3323,"ĠUnleashed":3324,"Intimidation":3325,"Apprehensive":3326,"'m":3327,"Aw":3328,"Ach":3329,"Act":3330,"All":3331,"Appreci":3332,"Astronomy":3333,"Bu":3334,"Bon":3335,"Bet":3336,"Ball":3337,"Bab":3338,"Bought":3339,"Binge":3340,"Building":3341,"Can":3342,"Cra":3343,"Cart":3344,"Cru":3345,"Count":3346,"Crush":3347,"Cars":3348,"Dark":3349,"Drap":3350,"Dazz":3351,"DIY":3352,"Dinner":3353,"Digital":3354,"Danced":3355,"Es":3356,"Event":3357,"Eyes":3358,"Fly":3359,"Fum":3360,"Food":3361,"Fuel":3362,"Festival":3363,"Fix":3364,"Friends":3365,"Fashion":3366,"Gid":3367,"Gig":3368,"Galler":3369,"Had":3370,"Hist":3371,"Hum":3372,"Happ":3373,"Hiding":3374,"Hiking":3375,"Head":3376,"Hips":3377,"Hik":3378,"Imb":3379,"Isol":3380,"Lea":3381,"Laz":3382,"Love":3383,"Language":3384,"My":3385,"Mot":3386,"Mast":3387,"Mov":3388,"Mind":3389,"Medit":3390,"Meditation":3391,"Museum":3392,"Mesmer":3393,"Maker":3394,"No":3395,"Nation":3396,"Nov":3397,"Nostalg":3398,"Never":3399,"Old":3400,"Optim":3401,"Pea":3402,"Pol":3403,"Pure":3404,"Park":3405,"Pens":3406,"Picnic":3407,"Qual":3408,"Ro":3409,"Ran":3410,"Rel":3411,"Run":3412,"Rea":3413,"Rain":3414,"Rid":3415,"Riding":3416,"Sk":3417,"Sn":3418,"Sing":3419,"Sol":3420,"See":3421,"Soul":3422,"Sail":3423,"Swe":3424,"Sorrow":3425,"Some":3426,"Self":3427,"Sweet":3428,"Simple":3429,"Swing":3430,"Satisfaction":3431,"TV":3432,"Th":3433,"To":3434,"Tim":3435,"Too":3436,"Tour":3437,"Taking":3438,"Tasting":3439,"Techn":3440,"Trend":3441,"Upt":3442,"Vis":3443,"Volunt":3444,"Walking":3445,"Watching":3446,"Wisdom":3447,"Winning":3448,"Wonder":3449,"Walk":3450,"ael":3451,"be":3452,"bt":3453,"bre":3454,"ban":3455,"bea":3456,"bow":3457,"bers":3458,"but":3459,"boo":3460,"bling":3461,"bles":3462,"biting":3463,"broken":3464,"banging":3465,"cin":3466,"cor":3467,"car":3468,"ced":3469,"can":3470,"cst":3471,"cou":3472,"cent":3473,"cul":3474,"cas":3475,"cking":3476,"cast":3477,"cip":3478,"cend":3479,"capp":3480,"cons":3481,"cident":3482,"crush":3483,"corn":3484,"cars":3485,"cue":3486,"cÃ©":3487,"di":3488,"dy":3489,"ded":3490,"die":3491,"date":3492,"dog":3493,"differ":3494,"dinary":3495,"discovered":3496,"dives":3497,"dreaming":3498,"eu":3499,"ev":3500,"eed":3501,"eet":3502,"emb":3503,"eins":3504,"eMy":3505,"ecast":3506,"fing":3507,"for":3508,"fun":3509,"fair":3510,"fire":3511,"face":3512,"foot":3513,"filled":3514,"free":3515,"gk":3516,"gat":3517,"get":3518,"gies":3519,"gles":3520,"gins":3521,"gional":3522,"geless":3523,"ground":3524,"gulf":3525,"gazer":3526,"hl":3527,"hs":3528,"hos":3529,"hake":3530,"hmer":3531,"hibition":3532,"iing":3533,"iol":3534,"iance":3535,"ium":3536,"irac":3537,"iked":3538,"iency":3539,"ja":3540,"ji":3541,"jords":3542,"ken":3543,"kating":3544,"kiss":3545,"lw":3546,"lor":3547,"las":3548,"lect":3549,"lus":3550,"lif":3551,"lost":3552,"lust":3553,"lass":3554,"life":3555,"land":3556,"lping":3557,"lps":3558,"laze":3559,"love":3560,"mn":3561,"mo":3562,"med":3563,"mend":3564,"mem":3565,"mist":3566,"maz":3567,"mering":3568,"miration":3569,"mans":3570,"muggling":3571,"mersed":3572,"mier":3573,"mwork":3574,"ny":3575,"not":3576,"ners":3577,"night":3578,"nov":3579,"ney":3580,"nack":3581,"nline":3582,"notic":3583,"naws":3584,"ool":3585,"oid":3586,"oday":3587,"oosing":3588,"oTravel":3589,"odern":3590,"py":3591,"pent":3592,"pure":3593,"pest":3594,"pth":3595,"pop":3596,"pack":3597,"poss":3598,"pane":3599,"pelling":3600,"pred":3601,"phos":3602,"pnotic":3603,"ror":3604,"rar":3605,"rom":3606,"run":3607,"rends":3608,"rong":3609,"riting":3610,"resh":3611,"render":3612,"runch":3613,"so":3614,"sw":3615,"son":3616,"sating":3617,"sper":3618,"sign":3619,"scends":3620,"sics":3621,"scars":3622,"smuggling":3623,"ti":3624,"tz":3625,"ties":3626,"top":3627,"there":3628,"tiness":3629,"tens":3630,"trac":3631,"told":3632,"travel":3633,"tale":3634,"tact":3635,"taste":3636,"uation":3637,"uds":3638,"upl":3639,"uding":3640,"uge":3641,"uary":3642,"uable":3643,"ugging":3644,"uji":3645,"vin":3646,"vat":3647,"vor":3648,"vation":3649,"vour":3650,"vig":3651,"vable":3652,"vial":3653,"wed":3654,"worm":3655,"wak":3656,"wide":3657,"watch":3658,"walking":3659,"wining":3660,"xt":3661,"xer":3662,"xist":3663,"ye":3664,"ying":3665,"yon":3666,"yTeen":3667,"yber":3668,"yDay":3669,"ymn":3670,"ypnotic":3671,"Ġ1":3672,"ĠU":3673,"Ġur":3674,"Ġrow":3675,"ĠAt":3676,"ĠRe":3677,"ĠEn":3678,"Ġending":3679,"ĠFeeling":3680,"ĠExploring":3681,"Ġumb":3682,"ĠEmbracing":3683,"ĠExcitement":3684,"ĠâĢ":3685,"ĠInt":3686,"Ġupl":3687,"ina":3688,"inat":3689,"ined":3690,"inot":3691,"inions":3692,"inks":3693,"iniscing":3694,"inja":3695,"Ġtit":3696,"Ġtic":3697,"Ġtul":3698,"Ġtrou":3699,"Ġtear":3700,"Ġtem":3701,"Ġtry":3702,"Ġtong":3703,"Ġtaking":3704,"Ġtang":3705,"Ġtrying":3706,"Ġtric":3707,"Ġtide":3708,"Ġtorn":3709,"Ġtasting":3710,"Ġtorr":3711,"Ġtakes":3712,"Ġtenderness":3713,"Ġtrend":3714,"Ġtroves":3715,"Ġtrends":3716,"Ġaest":3717,"Ġawar":3718,"Ġaward":3719,"Ġavo":3720,"Ġapart":3721,"Ġawak":3722,"heer":3723,"hearted":3724,"ingful":3725,"Ġoak":3726,"Ġorigami":3727,"Ġovation":3728,"Ġthen":3729,"Ġthey":3730,"Ġthere":3731,"Ġtherap":3732,"Ġtheater":3733,"era":3734,"ero":3735,"erie":3736,"erance":3737,"erly":3738,"erry":3739,"erade":3740,"erived":3741,"errar":3742,"ervor":3743,"eness":3744,"enjoying":3745,"Ġsit":3746,"Ġsan":3747,"Ġspl":3748,"Ġsight":3749,"Ġsac":3750,"Ġsem":3751,"Ġsqu":3752,"Ġsends":3753,"Ġsway":3754,"Ġseat":3755,"Ġsong":3756,"Ġsand":3757,"Ġseek":3758,"Ġsep":3759,"Ġsands":3760,"Ġside":3761,"Ġsens":3762,"Ġslit":3763,"Ġsign":3764,"Ġsale":3765,"Ġsuff":3766,"Ġswaying":3767,"Ġsatisfaction":3768,"Ġsinks":3769,"esent":3770,"ester":3771,"ones":3772,"onic":3773,"onds":3774,"onizing":3775,"onnecting":3776,"oncÃ©":3777,"Ġcel":3778,"Ġcri":3779,"Ġcall":3780,"Ġcast":3781,"Ġcem":3782,"Ġcov":3783,"Ġcust":3784,"Ġcook":3785,"Ġcapt":3786,"Ġcric":3787,"Ġcorn":3788,"Ġcooking":3789,"Ġcalm":3790,"Ġcease":3791,"Ġcaps":3792,"Ġcooked":3793,"Ġcrit":3794,"Ġcyber":3795,"aty":3796,"atural":3797,"atters":3798,"attending":3799,"attain":3800,"attle":3801,"athetic":3802,"athering":3803,"ork":3804,"oral":3805,"ored":3806,"orus":3807,"oram":3808,"orating":3809,"orse":3810,"orway":3811,"orini":3812,"orphos":3813,"itar":3814,"itions":3815,"itical":3816,"itable":3817,"itched":3818,"itiat":3819,"ittle":3820,"ithered":3821,"Ġfun":3822,"Ġfro":3823,"Ġfas":3824,"Ġfight":3825,"Ġfac":3826,"Ġfence":3827,"Ġfill":3828,"Ġfine":3829,"Ġfig":3830,"Ġfoc":3831,"Ġfeat":3832,"Ġfog":3833,"Ġfits":3834,"Ġfade":3835,"Ġface":3836,"Ġfix":3837,"Ġfulfill":3838,"Ġfund":3839,"Ġfeet":3840,"Ġfjords":3841,"Ġfervor":3842,"rell":3843,"reck":3844,"reading":3845,"reparing":3846,"Ġwel":3847,"Ġwast":3848,"Ġwear":3849,"Ġwill":3850,"Ġwov":3851,"Ġwoun":3852,"Ġwiz":3853,"Ġwake":3854,"Ġwander":3855,"Ġwide":3856,"Ġwash":3857,"Ġwrapped":3858,"Ġwrink":3859,"Ġwithered":3860,"Ġwreck":3861,"Ġink":3862,"Ġinst":3863,"Ġinter":3864,"Ġinfect":3865,"Ġinfus":3866,"Ġinstru":3867,"Ġincident":3868,"Ġinev":3869,"Ġinnov":3870,"Ġinvig":3871,"Ġinitiat":3872,"aris":3873,"arra":3874,"arri":3875,"aration":3876,"arating":3877,"arning":3878,"arle":3879,"arched":3880,"argazer":3881,"alore":3882,"aldives":3883,"alfun":3884,"Ġbel":3885,"Ġbam":3886,"Ġbag":3887,"Ġbike":3888,"Ġbey":3889,"Ġbran":3890,"Ġbout":3891,"Ġbell":3892,"Ġbeat":3893,"Ġboul":3894,"Ġbare":3895,"Ġbaking":3896,"Ġbrill":3897,"Ġbake":3898,"Ġborn":3899,"Ġbrac":3900,"Ġbasking":3901,"Ġbelong":3902,"Ġbounce":3903,"Ġbinge":3904,"Ġboring":3905,"Ġbrunch":3906,"Ġbonds":3907,"Ġbattle":3908,"Ġbarri":3909,"eding":3910,"ana":3911,"anse":3912,"anionship":3913,"anagement":3914,"anyon":3915,"anoram":3916,"Ġmas":3917,"Ġmus":3918,"Ġmend":3919,"Ġmust":3920,"Ġmour":3921,"Ġmoun":3922,"Ġmood":3923,"Ġmarking":3924,"Ġmult":3925,"Ġmatch":3926,"Ġmore":3927,"Ġmakes":3928,"Ġmater":3929,"Ġmead":3930,"Ġmira":3931,"Ġmini":3932,"Ġmesmer":3933,"Ġmodern":3934,"Ġminot":3935,"Ġmatters":3936,"Ġmalfun":3937,"Ġmanagement":3938,"sty":3939,"stal":3940,"stic":3941,"stir":3942,"sters":3943,"stag":3944,"store":3945,"stract":3946,"stakes":3947,"steps":3948,"Ġpit":3949,"Ġpri":3950,"Ġpul":3951,"Ġpay":3952,"Ġput":3953,"Ġpure":3954,"Ġpup":3955,"Ġpost":3956,"Ġpill":3957,"Ġport":3958,"Ġpod":3959,"Ġpile":3960,"Ġphotograp":3961,"Ġpang":3962,"Ġpud":3963,"Ġpace":3964,"Ġpract":3965,"Ġpiqu":3966,"Ġproud":3967,"Ġphotographer":3968,"Ġpho":3969,"Ġpian":3970,"Ġpracticing":3971,"Ġponder":3972,"Ġparad":3973,"Ġpicnic":3974,"Ġpaper":3975,"Ġpool":3976,"Ġparched":3977,"Ġpanoram":3978,"ouder":3979,"oustic":3980,"Ġled":3981,"Ġlay":3982,"Ġlow":3983,"Ġlate":3984,"Ġlist":3985,"Ġlack":3986,"Ġlone":3987,"Ġlonel":3988,"Ġlens":3989,"Ġlane":3990,"Ġlooking":3991,"Ġlining":3992,"Ġliter":3993,"Ġlunch":3994,"Ġleft":3995,"Ġliked":3996,"Ġlittle":3997,"Ġlouder":3998,"Ġdess":3999,"Ġdest":4000,"Ġdem":4001,"Ġdust":4002,"Ġdood":4003,"Ġdang":4004,"Ġdiving":4005,"Ġdancer":4006,"Ġduty":4007,"Ġdiff":4008,"Ġdrink":4009,"Ġdanced":4010,"Ġderived":4011,"ention":4012,"Ġever":4013,"Ġeag":4014,"Ġelation":4015,"Ġeuphor":4016,"Ġelabor":4017,"Ġetern":4018,"Ġebb":4019,"Ġeasy":4020,"Ġequations":4021,"Ġemergency":4022,"Ġecst":4023,"Ġelus":4024,"Ġethere":4025,"Ġeye":4026,"Ġearning":4027,"iscent":4028,"omance":4029,"omedy":4030,"eled":4031,"elet":4032,"eline":4033,"eland":4034,"elty":4035,"eliers":4036,"Ġanger":4037,"Ġansw":4038,"ilt":4039,"iling":4040,"ilarating":4041,"ceful":4042,"cealing":4043,"ceiving":4044,"ceives":4045,"essional":4046,"ica":4047,"icch":4048,"icul":4049,"icance":4050,"icine":4051,"icles":4052,"ically":4053,"icRid":4054,"iciency":4055,"Ġgot":4056,"Ġgour":4057,"Ġglo":4058,"Ġgive":4059,"Ġgig":4060,"Ġgaz":4061,"Ġgrap":4062,"Ġgeek":4063,"Ġgild":4064,"Ġground":4065,"Ġgreat":4066,"Ġgiving":4067,"Ġgraced":4068,"Ġgond":4069,"Ġgreen":4070,"Ġgroves":4071,"Ġgrounds":4072,"Ġgnaws":4073,"Ġgymn":4074,"Ġgathering":4075,"Ġgalore":4076,"ram":4077,"rait":4078,"rage":4079,"rains":4080,"raising":4081,"Ġtoes":4082,"Ġtown":4083,"Ġtoget":4084,"Ġnation":4085,"Ġnail":4086,"Ġnavigating":4087,"Ġninja":4088,"Ġnatural":4089,"unk":4090,"uns":4091,"unning":4092,"unner":4093,"Ġthin":4094,"Ġthri":4095,"Ġthumb":4096,"Ġthings":4097,"Ġthorn":4098,"Ġthinking":4099,"Ġthirst":4100,"Ġthose":4101,"changing":4102,"urer":4103,"urance":4104,"urden":4105,"urring":4106,"urric":4107,"urger":4108,"urrounded":4109,"urdles":4110,"urface":4111,"Ġhol":4112,"Ġhot":4113,"Ġhow":4114,"Ġhall":4115,"Ġhad":4116,"Ġhike":4117,"Ġhig":4118,"Ġharm":4119,"Ġhoc":4120,"Ġhurt":4121,"Ġhole":4122,"Ġhorr":4123,"Ġhunt":4124,"Ġharmony":4125,"Ġhob":4126,"Ġhips":4127,"Ġhacky":4128,"Ġhypnotic":4129,"Ġhurdles":4130,"eaders":4131,"eamwork":4132,"ithout":4133,"ctions":4134,"ctuary":4135,"ete":4136,"etall":4137,"etup":4138,"etti":4139,"ried":4140,"riding":4141,"riving":4142,"rible":4143,"rikes":4144,"ribut":4145,"riana":4146,"Ġwithstand":4147,"Ġforce":4148,"Ġforward":4149,"Ġforecast":4150,"ational":4151,"ula":4152,"ule":4153,"ular":4154,"uled":4155,"ulating":4156,"ulpting":4157,"ulges":4158,"irlw":4159,"ola":4160,"olation":4161,"olos":4162,"olizing":4163,"olcan":4164,"Ġstag":4165,"Ġstood":4166,"Ġstories":4167,"Ġstrate":4168,"Ġstash":4169,"Ġstalking":4170,"Ġstroll":4171,"Ġstrong":4172,"Ġstitched":4173,"Ġstunning":4174,"Ġstrikes":4175,"ays":4176,"aying":4177,"aylor":4178,"ote":4179,"ots":4180,"oting":4181,"otlight":4182,"asies":4183,"Ġrev":4184,"Ġrequ":4185,"Ġreig":4186,"Ġrecom":4187,"Ġreject":4188,"Ġregg":4189,"Ġregre":4190,"Ġreign":4191,"Ġrevis":4192,"Ġreading":4193,"Ġrevisiting":4194,"Ġregional":4195,"Ġreceives":4196,"owed":4197,"owout":4198,"owpane":4199,"imber":4200,"imony":4201,"improvement":4202,"immering":4203,"ects":4204,"ectual":4205,"ectural":4206,"Ġchat":4207,"Ġchain":4208,"Ġchance":4209,"Ġchand":4210,"Ġchord":4211,"Ġchoir":4212,"Ġchasing":4213,"Ġchips":4214,"Ġchanging":4215,"Ġchoosing":4216,"Ġchorus":4217,"Ġconfer":4218,"Ġconform":4219,"Ġcontact":4220,"Ġconcealing":4221,"erse":4222,"arth":4223,"arty":4224,"artwheel":4225,"ples":4226,"plex":4227,"pleas":4228,"planes":4229,"amaic":4230,"amorphos":4231,"ifting":4232,"iffel":4233,"ifying":4234,"ificance":4235,"alleled":4236,"allowed":4237,"Ġvow":4238,"Ġvine":4239,"Ġvowing":4240,"Ġvide":4241,"Ġvane":4242,"Ġvoices":4243,"Ġveins":4244,"Ġviol":4245,"Ġvoid":4246,"Ġvolcan":4247,"oses":4248,"Ġjoin":4249,"Ġjob":4250,"Ġunite":4251,"Ġunited":4252,"Ġunmet":4253,"Ġunpar":4254,"Ġunsol":4255,"Ġuntang":4256,"Ġundiscovered":4257,"Ġunpred":4258,"Ġuntold":4259,"Ġunattain":4260,"aped":4261,"apan":4262,"Ġship":4263,"Ġshop":4264,"Ġsharing":4265,"Ġshoot":4266,"Ġshore":4267,"Ġshields":4268,"Ġshines":4269,"Ġshock":4270,"Ġshimmering":4271,"Ġshaped":4272,"mber":4273,"mbly":4274,"mbling":4275,"mbles":4276,"mbolizing":4277,"iesMar":4278,"astal":4279,"astically":4280,"Ġexist":4281,"Ġexcit":4282,"Ġexub":4283,"Ġexcept":4284,"Ġexpected":4285,"Ġexpert":4286,"Ġextra":4287,"Ġextrac":4288,"aint":4289,"Ġheating":4290,"Ġhearing":4291,"Ġhelping":4292,"Ġring":4293,"Ġrand":4294,"Ġrising":4295,"Ġrich":4296,"Ġrumors":4297,"Ġromance":4298,"Ġruled":4299,"iem":4300,"ieber":4301,"ieve":4302,"ieQu":4303,"ieNight":4304,"ests":4305,"esty":4306,"estling":4307,"estial":4308,"Ġclues":4309,"Ġclinking":4310,"Ġclicks":4311,"Ġclarity":4312,"Ġclick":4313,"Ġcliff":4314,"Ġclose":4315,"Ġclock":4316,"Ġclimber":4317,"acle":4318,"ached":4319,"Ġcoming":4320,"Ġcomet":4321,"Ġcomeb":4322,"Ġcommunication":4323,"Ġneeds":4324,"Ġnegat":4325,"Ġnext":4326,"Insp":4327,"Inspired":4328,"InTra":4329,"Indiffer":4330,"eminiscing":4331,"idays":4332,"Ġattic":4333,"Ġattending":4334,"Ġathl":4335,"ateboard":4336,"adTri":4337,"adiat":4338,"aveng":4339,"thing":4340,"through":4341,"thMode":4342,"illing":4343,"key":4344,"ustin":4345,"oyful":4346,"oyance":4347,"quare":4348,"querade":4349,"Ġsprin":4350,"Ġspilled":4351,"Ġsparked":4352,"Ġspinning":4353,"Ġspree":4354,"Ġspellb":4355,"Ġspontaneous":4356,"Ġspreading":4357,"Ġspotlight":4358,"Ġspilling":4359,"achu":4360,"opes":4361,"opted":4362,"ista":4363,"istic":4364,"lying":4365,"lymp":4366,"sey":4367,"seum":4368,"secon":4369,"sembly":4370,"aga":4371,"agic":4372,"derway":4373,"peration":4374,"Ġcreation":4375,"Ġcrevice":4376,"Ġcreeps":4377,"Ġnews":4378,"Extending":4379,"Exhibition":4380,"Ġarise":4381,"Ġashes":4382,"Ġassign":4383,"Ġassembly":4384,"ants":4385,"antment":4386,"anticip":4387,"antorini":4388,"Ġworry":4389,"oung":4390,"lege":4391,"Ġprose":4392,"Ġprosp":4393,"Ġproblems":4394,"Ġpropelling":4395,"Ġprosper":4396,"ume":4397,"Ġlaunch":4398,"Ġlakes":4399,"loat":4400,"logging":4401,"herness":4402,"Ġisolation":4403,"Ġaffair":4404,"Ġafloat":4405,"enix":4406,"enice":4407,"lingClub":4408,"tingEvent":4409,"Ġwho":4410,"Ġwhat":4411,"Ġwhirlw":4412,"Ġplea":4413,"Ġplot":4414,"Ġplanes":4415,"Ġplants":4416,"flip":4417,"ventures":4418,"ements":4419,"ĠAI":4420,"ĠAchie":4421,"ĠAppla":4422,"ĠAbst":4423,"ĠAgeless":4424,"ĠAlps":4425,"ĠAmaz":4426,"ĠAriana":4427,"Ġskateboard":4428,"Ġintens":4429,"Ġintention":4430,"veling":4431,"Ġserpent":4432,"eyed":4433,"eyoncÃ©":4434,"ĠSoaring":4435,"ĠSunday":4436,"ĠSkating":4437,"ĠSnack":4438,"ĠSinat":4439,"ĠSheer":4440,"ĠSurrounded":4441,"ĠSquare":4442,"ĠSantorini":4443,"SeniorExplor":4444,"SeniorHost":4445,"SeniorJoy":4446,"SeniorLearning":4447,"SeniorWr":4448,"SeniorCooking":4449,"SeniorGarden":4450,"SeniorCyc":4451,"SeniorArtLover":4452,"SeniorWineLover":4453,"SeniorAct":4454,"SeniorHik":4455,"SeniorWisdom":4456,"rank":4457,"Ġups":4458,"ineering":4459,"arkable":4460,"Ġaftertaste":4461,"airness":4462,"Ġtimeline":4463,"Ġoverflowing":4464,"Ġoverwhelmed":4465,"Ġoverrated":4466,"Ġflat":4467,"Ġflood":4468,"Ġflowing":4469,"Ġflower":4470,"Ġflaws":4471,"Ġbeach":4472,"Ġbeacon":4473,"Ġmeant":4474,"Ġmeetup":4475,"Ġmember":4476,"Ġdevelop":4477,"Ġdepart":4478,"Ġdecor":4479,"Ġdepth":4480,"Ġdevour":4481,"Received":4482,"Recon":4483,"Recip":4484,"Receiving":4485,"igner":4486,"vings":4487,"Ġkite":4488,"Ġkicks":4489,"Ġkick":4490,"Ġknot":4491,"Ġechoed":4492,"azed":4493,"Ġadversity":4494,"Ġadmiration":4495,"Ġadopted":4496,"ormula":4497,"Ġdisaster":4498,"Ġdisheart":4499,"Theater":4500,"communication":4501,"spirit":4502,"speed":4503,"ĠMe":4504,"ĠMind":4505,"ĠMine":4506,"ĠMoon":4507,"ĠMiss":4508,"ĠMount":4509,"ĠMix":4510,"ĠMars":4511,"ĠMich":4512,"ĠMirac":4513,"ĠMarle":4514,"ĠMaldives":4515,"ĠMetall":4516,"ĠMachu":4517,"ĠMagic":4518,"Ġsunlit":4519,"Ġsunbea":4520,"Ġsunny":4521,"Ġpaint":4522,"ackson":4523,"Entered":4524,"Envelop":4525,"Entang":4526,"Enroll":4527,"Engulf":4528,"ize":4529,"izational":4530,"Ġablaze":4531,"Ġabstract":4532,"ĠCity":4533,"ĠCup":4534,"ĠCare":4535,"ĠCont":4536,"ĠCold":4537,"ĠCooking":4538,"ĠCris":4539,"ĠClass":4540,"ĠConnecting":4541,"ĠCanyon":4542,"ĠComedy":4543,"ĠColos":4544,"ĠCartwheel":4545,"ellectual":4546,"Ġrescue":4547,"Ġresurface":4548,"ounded":4549,"ocating":4550,"Ġrare":4551,"Ġradi":4552,"Ġimprin":4553,"Ġimprovement":4554,"Ġimmersed":4555,"Ġimposs":4556,"Ġsymbolizing":4557,"Ġdespite":4558,"Ġdesert":4559,"Ġdescend":4560,"Ġdesigner":4561,"oodles":4562,"Ġcreatures":4563,"eath":4564,"onexist":4565,"Ġfinest":4566,"Ġfinish":4567,"Ġclassical":4568,"Ġclassics":4569,"Ġsympathy":4570,"Staring":4571,"Stumb":4572,"Steal":4573,"Starting":4574,"Streaming":4575,"Striding":4576,"ebugging":4577,"Ġtale":4578,"Ġtrack":4579,"Ġtraining":4580,"Contempl":4581,"Connecting":4582,"Convin":4583,"akira":4584,"hips":4585,"jectSuccess":4586,"Ġyoung":4587,"Ġenjoy":4588,"Ġenjoying":4589,"Ġenvis":4590,"Ġenlight":4591,"Ġencou":4592,"Ġroar":4593,"Ġroom":4594,"Ġrose":4595,"Ġroads":4596,"Ġroots":4597,"Ġsolo":4598,"Ġsolos":4599,"Ġsolace":4600,"Ġsoulful":4601,"Ġpersever":4602,"Ġeveryone":4603,"Ġeveryday":4604,"icalMusic":4605,"Ġglance":4606,"Ġgliding":4607,"Ġglances":4608,"Ġglimmer":4609,"Ġgladiat":4610,"TeenMusic":4611,"TeenPro":4612,"TeenConf":4613,"TeenMem":4614,"TeenChef":4615,"TeenVibes":4616,"TeenAchie":4617,"TeenHome":4618,"TeenStruggles":4619,"TeenArtLover":4620,"TeenBlogg":4621,"TeenCrush":4622,"TeenHum":4623,"abbling":4624,"ggle":4625,"Ġquicks":4626,"Ġquilt":4627,"Ġquaint":4628,"Ġachieved":4629,"Ġcolor":4630,"Ġcolder":4631,"Ġcollabor":4632,"Ġcollect":4633,"Ġcollege":4634,"Ġbrewing":4635,"Ġbrewed":4636,"Ġbreeding":4637,"Ġmemes":4638,"Ġmemoir":4639,"Ġperplex":4640,"Ġplays":4641,"Ġplaying":4642,"Ġplaylist":4643,"Ġplaytime":4644,"Ġplaydate":4645,"eping":4646,"Ġright":4647,"Ġriding":4648,"Ġriff":4649,"Ġrippl":4650,"Ġtries":4651,"Ġtrivial":4652,"Ġoutstanding":4653,"Ġsurfer":4654,"Ġsurrounds":4655,"Ġsurrender":4656,"Ġcoastal":4657,"Ġblock":4658,"Ġnotes":4659,"Ġworks":4660,"Ġworkplace":4661,"exting":4662,"expected":4663,"ighs":4664,"ĠDon":4665,"ĠDay":4666,"ĠDance":4667,"ĠDeal":4668,"ĠDiving":4669,"ĠDoodles":4670,"ĠDebugging":4671,"ĠDabbling":4672,"Ġturmo":4673,"Ġtranscends":4674,"Ġairplanes":4675,"Ġsilver":4676,"Ġschools":4677,"itnessing":4678,"Ġmindful":4679,"Ġshown":4680,"Ġshower":4681,"Ġshowering":4682,"Ġshowcas":4683,"Ġadventurer":4684,"odies":4685,"oons":4686,"oonNostalgia":4687,"Ġacoustic":4688,"Ġscars":4689,"Ġscanning":4690,"Ġsculpting":4691,"Ġscaveng":4692,"Ġcarried":4693,"Ġinspiring":4694,"Ġbeing":4695,"Ġbegins":4696,"Ġbetter":4697,"Ġbooked":4698,"Ġbookstore":4699,"Ġmove":4700,"Ġmoving":4701,"Ġmoves":4702,"Ġmoved":4703,"Ġmovements":4704,"Ġpresent":4705,"Ġembarking":4706,"Ġembrac":4707,"Ġembarra":4708,"Ġstarry":4709,"Ġstarless":4710,"Ġconnecting":4711,"Ġconnected":4712,"cked":4713,"ffic":4714,"rilled":4715,"ssment":4716,"vements":4717,"ĠFamily":4718,"ĠFang":4719,"ĠFred":4720,"ĠFarewell":4721,"ĠFuji":4722,"ĠFerrar":4723,"ĠFunk":4724,"ĠFrank":4725,"ĠFormula":4726,"ĠPetra":4727,"ĠPaper":4728,"ĠProm":4729,"ĠPerry":4730,"ĠPreparing":4731,"ĠParis":4732,"ĠPicch":4733,"ĠParty":4734,"Ġempower":4735,"Ġemptiness":4736,"Ġempathetic":4737,"Ġrealities":4738,"Ġrealize":4739,"Ġunderdog":4740,"Ġfriendly":4741,"covering":4742,"Overjoy":4743,"ĠIt":4744,"ĠLet":4745,"ĠLie":4746,"ĠLike":4747,"ĠLevel":4748,"ĠLights":4749,"ĠLove":4750,"ĠLeft":4751,"ĠWat":4752,"ĠWall":4753,"ĠWhere":4754,"ĠWish":4755,"ĠWords":4756,"ĠWho":4757,"ĠWriting":4758,"ĠWithout":4759,"ĠWitnessing":4760,"Ġentwining":4761,"Ġaging":4762,"Ġsoil":4763,"Ġsoars":4764,"Ġsocial":4765,"Ġsetting":4766,"Ġcanal":4767,"Ġfeelings":4768,"Ġweeks":4769,"Ġgold":4770,"ationships":4771,"Ġrecent":4772,"ibility":4773,"Ġcompany":4774,"Ġcompanionship":4775,"ticipation":4776,"ĠEd":4777,"ĠEquations":4778,"ĠEmergency":4779,"ĠEarth":4780,"ĠEiffel":4781,"ĠTower":4782,"ĠTime":4783,"ĠTech":4784,"ĠTimes":4785,"ĠTik":4786,"ĠTalk":4787,"ĠToday":4788,"ĠTeamwork":4789,"ĠTaylor":4790,"ĠTexting":4791,"Ġsuccessful":4792,"Ġsuccessfully":4793,"Ġindie":4794,"Ġindulges":4795,"Ġbitterness":4796,"elessMel":4797,"Ġthriller":4798,"Ġhappen":4799,"Ġstoryline":4800,"Reflections":4801,"Reflective":4802,"Ġteammates":4803,"Ġteamwork":4804,"Ġaccepts":4805,"ArtGaller":4806,"Spark":4807,"Spellb":4808,"Spontaneous":4809,"ĠBad":4810,"ĠBaking":4811,"ĠBob":4812,"ĠBuilding":4813,"ĠBrun":4814,"ĠBurger":4815,"ĠBieber":4816,"ĠBlogging":4817,"ĠBeyoncÃ©":4818,"Ġcelebrate":4819,"Ġframe":4820,"Ġframed":4821,"stery":4822,"Ġprecis":4823,"Ġpretending":4824,"Ġprecious":4825,"Ġprepar":4826,"Ġpreparing":4827,"Ġprecar":4828,"Ġpremier":4829,"Ġgrip":4830,"roomDancing":4831,"Ġrelishing":4832,"Ġrelationships":4833,"Ġunfairness":4834,"Ġunfounded":4835,"Ġexploring":4836,"Ġexplorer":4837,"Ġcloud":4838,"Ġclouding":4839,"Ġrainstorm":4840,"Ġrainbow":4841,"Ġrainfor":4842,"iously":4843,"ĠNew":4844,"ĠNorway":4845,"ĠNonexist":4846,"Ġended":4847,"Ġendurance":4848,"Ġtwo":4849,"Ġtombst":4850,"ensils":4851,"Ġblending":4852,"Ġblues":4853,"Ġblurring":4854,"Ġblowout":4855,"Ġmusician":4856,"Ġmastery":4857,"Ġpossessions":4858,"Ġpaths":4859,"Ġlongest":4860,"ictory":4861,"ictable":4862,"Ġgrowing":4863,"Ġsteps":4864,"Ġstepping":4865,"Ġchambers":4866,"Ġturns":4867,"Ġturned":4868,"Ġrhythms":4869,"Ġrhythmic":4870,"Anticipation":4871,"Shame":4872,"Unve":4873,"Undern":4874,"ĠGroup":4875,"ĠGreat":4876,"ĠGreen":4877,"ĠGuns":4878,"ĠGaga":4879,"ĠKing":4880,"ĠKeu":4881,"ĠKhmer":4882,"ĠKaty":4883,"Ġeruption":4884,"Ġengross":4885,"Ġengines":4886,"Ġengagement":4887,"Ġengineering":4888,"Ġamazing":4889,"Ġoptimistic":4890,"Ġsmall":4891,"Ġselfie":4892,"Ġcravings":4893,"ordinary":4894,"Ġwriter":4895,"Ġbackground":4896,"Ġbackpack":4897,"Ġmoonwalking":4898,"Ġdelights":4899,"Ġdarker":4900,"Ġdarkness":4901,"Ġdarkest":4902,"Ġgoing":4903,"Ġgrand":4904,"rayal":4905,"Ġhighly":4906,"Ġconquers":4907,"Ġconquered":4908,"Ġexhilarating":4909,"Ġmystery":4910,"Ġmysterious":4911,"Ġpromote":4912,"Ġcanvases":4913,"Ġaccomplishing":4914,"Adventures":4915,"Amazed":4916,"Bittersweet":4917,"Choir":4918,"Charity":4919,"Discovered":4920,"Discovering":4921,"Hosting":4922,"LifeReflections":4923,"SeriesMar":4924,"ches":4925,"great":4926,"mmaker":4927,"ĠJay":4928,"ĠJamaic":4929,"ĠJapan":4930,"ĠJustin":4931,"ĠJoyful":4932,"ĠJackson":4933,"ĠOrigami":4934,"ĠOnline":4935,"ĠOscars":4936,"ĠOlymp":4937,"Ġescal":4938,"Ġkeys":4939,"Ġkeeps":4940,"Ġkeeping":4941,"Ġtree":4942,"Ġtrembling":4943,"Ġslam":4944,"Ġslip":4945,"Ġslopes":4946,"Ġswing":4947,"Ġswimmer":4948,"Ġswallowed":4949,"ontent":4950,"Ġcruelty":4951,"Ġcrumbles":4952,"Ġfailed":4953,"Ġfailure":4954,"Ġfuels":4955,"Ġweighs":4956,"Ġweaver":4957,"Ġweapons":4958,"Ġwindowpane":4959,"Ġburger":4960,"Ġbuilt":4961,"Ġlifts":4962,"Ġanticipating":4963,"Ġanticipated":4964,"Ġforging":4965,"Ġforgot":4966,"Ġstreaking":4967,"Ġstudent":4968,"Ġreflects":4969,"Ġreflecting":4970,"Ġreflection":4971,"Ġreflections":4972,"Ġvictories":4973,"Ġdiscovers":4974,"Ġresonate":4975,"Ġperfecting":4976,"Ġperfectly":4977,"Ġexperienced":4978,"Ġbetrayals":4979,"Ġenthusiasts":4980,"ClassCount":4981,"ClassicRid":4982,"ClassicalMusic":4983,"Ġcelebrations":4984,"Companionship":4985,"Heartache":4986,"Heartbroken":4987,"ductivity":4988,"Ġnovels":4989,"Ġviews":4990,"Ġuncertainties":4991,"Cheers":4992,"Cheering":4993,"Empire":4994,"Immerse":4995,"MusicNov":4996,"Procrastination":4997,"ProjectSuccess":4998,"Surprise":4999,"ializing":5000,"ĠHow":5001,"ĠHard":5002,"ĠHacky":5003,"ĠYork":5004,"ĠUnpleas":5005,"ĠUnderway":5006,"ĠUnexpected":5007,"Ġtestimony":5008,"Ġseeping":5009,"Ġseeps":5010,"Ġcosmic":5011,"Ġcareer":5012,"Ġcarefree":5013,"Ġfearful":5014,"Ġfearless":5015,"Ġfirewor":5016,"Ġfireplace":5017,"Ġfavorites":5018,"Ġwildly":5019,"Ġwildfire":5020,"Ġwildlife":5021,"Ġbringing":5022,"Ġmosh":5023,"Ġmagical":5024,"Ġdowns":5025,"Ġgame":5026,"Ġreminiscent":5027,"Ġchildren":5028,"Ġconfident":5029,"Ġconfetti":5030,"Ġheavier":5031,"Into":5032,"Intrig":5033,"Ġsportsmans":5034,"Ġprogression":5035,"ĠState":5036,"ĠStill":5037,"ĠStory":5038,"ĠStriving":5039,"ĠStaying":5040,"Ġdefies":5041,"Ġdefeats":5042,"Enthusiastically":5043,"Ġbecome":5044,"Ġrecipes":5045,"ĠEverything":5046,"Serenading":5047,"Ġstreets":5048,"Compassionate":5049,"Ġcirculating":5050,"Ġmountains":5051,"Ġmountaintop":5052,"Blog":5053,"Bloomer":5054,"Despite":5055,"Desperation":5056,"Joys":5057,"Journeying":5058,"LateNight":5059,"LateBloomer":5060,"LearningJourney":5061,"NostalgiaTour":5062,"Organized":5063,"Quiet":5064,"Wrestling":5065,"kets":5066,"listMaker":5067,"oirWriting":5068,"yssey":5069,"Ġterrit":5070,"Ġterror":5071,"Ġterrains":5072,"Ġterrible":5073,"Ġordinary":5074,"Ġopposing":5075,"Ġchef":5076,"Ġchemist":5077,"Ġculture":5078,"Ġcultured":5079,"Ġcrushing":5080,"Ġcyclist":5081,"Ġfilm":5082,"Ġfilter":5083,"Ġfilms":5084,"Ġfilmmaker":5085,"Ġweathered":5086,"Ġboils":5087,"Ġboxer":5088,"Ġboundaries":5089,"Ġblessing":5090,"Ġblessed":5091,"Ġmissing":5092,"Ġmission":5093,"Ġlosses":5094,"Ġgraceful":5095,"Ġgracefully":5096,"Ġnurtures":5097,"ternoon":5098,"Ġhandshake":5099,"Ġstruggles":5100,"Ġstruggle":5101,"Ġremnant":5102,"Ġrememb":5103,"Ġremorse":5104,"Ġremarkable":5105,"Ġreturn":5106,"Ġrefuse":5107,"Ġrefusing":5108,"Ġreverberating":5109,"Ġcontemplating":5110,"Ġvalor":5111,"Ġvalues":5112,"Ġvaliant":5113,"Ġvaluable":5114,"Ġspringtime":5115,"Ġaromas":5116,"Ġprofile":5117,"Ġprofessional":5118,"Ġkittens":5119,"Ġcompete":5120,"ĠChef":5121,"ĠCheck":5122,"Ġresponsibility":5123,"Ġraindrop":5124,"Ġimagined":5125,"Ġimperfection":5126,"Ġtalents":5127,"Confidence":5128,"Ġsecures":5129,"Ġstargazer":5130,"Artistry":5131,"PlaylistMaker":5132,"Ġtreasures":5133,"Ġfairytale":5134,"Ġweightlif":5135,"Ġarchitectural":5136,"Empowered":5137,"Ġcivilizations":5138,"Ġcrowded":5139,"Ġmarketplace":5140,"Ġpositivity":5141,"BookLover":5142,"BookClub":5143,"Bookworm":5144,"Coder":5145,"Daydreaming":5146,"GardenWalk":5147,"Hello":5148,"HarmonyInAging":5149,"MemoryL":5150,"MemoirWriting":5151,"PhotographyExhibition":5152,"WineTasting":5153,"bullying":5154,"crafted":5155,"eanor":5156,"hof":5157,"ĠRain":5158,"ĠRumors":5159,"ĠRoses":5160,"Ġicy":5161,"Ġiconic":5162,"Ġicicles":5163,"Ġutensils":5164,"Ġignites":5165,"Ġtune":5166,"Ġauthor":5167,"Ġawaits":5168,"Ġodyssey":5169,"Ġorganizational":5170,"Ġsoundtra":5171,"Ġsailing":5172,"Ġcosts":5173,"Ġcostumes":5174,"Ġcostume":5175,"Ġfootball":5176,"Ġfootprin":5177,"Ġfootsteps":5178,"Ġwounded":5179,"Ġmonster":5180,"Ġmonument":5181,"Ġmonsters":5182,"Ġmakeover":5183,"Ġmajesty":5184,"Ġlinger":5185,"Ġlesson":5186,"Ġlives":5187,"Ġdoor":5188,"Ġdrivers":5189,"Ġdearly":5190,"Ġefficiency":5191,"Ġannoyance":5192,"Ġguitar":5193,"Ġgrade":5194,"Ġgrains":5195,"Ġgracious":5196,"Ġgalleries":5197,"Ġhandstand":5198,"Ġhandcrafted":5199,"Ġhaunting":5200,"Ġhaunts":5201,"Ġhaunted":5202,"Ġhorizons":5203,"ridled":5204,"Ġstays":5205,"Ġstains":5206,"Ġready":5207,"Ġexpressing":5208,"Ġexpresses":5209,"Ġexpression":5210,"Ġheadphon":5211,"Ġheadbanging":5212,"Ġrunway":5213,"Ġrunners":5214,"Ġrestores":5215,"Ġrestaur":5216,"Ġrestored":5217,"Ġspectacle":5218,"Ġproduction":5219,"Ġproductive":5220,"Ġwhispering":5221,"ĠAdventure":5222,"SeniorRunner":5223,"SeniorReaders":5224,"SeniorReminiscing":5225,"Ġflooding":5226,"Ġmeanings":5227,"Ġmeaningful":5228,"Ġdebris":5229,"Ġadorable":5230,"Ġdiscontent":5231,"Ġdisplayed":5232,"Ġimportance":5233,"Ġtraditions":5234,"Ġyearbook":5235,"Ġenchantment":5236,"Ġquestions":5237,"Ġquestioning":5238,"ĠDisappointment":5239,"ĠDisheart":5240,"ĠDisney":5241,"Ġtransports":5242,"Ġscene":5243,"Decor":5244,"Ġcurrency":5245,"ĠðŁİ¨":5246,"ĠðŁİĤ":5247,"ĠðŁİī":5248,"ĠðŁĲ¶":5249,"Ġcausing":5250,"Ġrelentless":5251,"Ġconstellation":5252,"Ġengulfing":5253,"Admiration":5254,"Ġkeyboard":5255,"Ġobserver":5256,"Ġobserving":5257,"Ġobservat":5258,"Ġobstacle":5259,"Ġstudying":5260,"ChefMode":5261,"ChefInTra":5262,"Ġopportunity":5263,"Ġsecret":5264,"WeekendVibes":5265,"WeekendEs":5266,"Ġilluminated":5267,"Ġlearned":5268,"Ġtriumphs":5269,"Ġsnapshots":5270,"After":5271,"Afternoon":5272,"Achieving":5273,"CyclingClub":5274,"DanceClass":5275,"DanceAll":5276,"Flipping":5277,"Floral":5278,"FamilyDinner":5279,"FamilyRecip":5280,"Gaming":5281,"GamerLife":5282,"GroupProjectSuccess":5283,"HomeCooking":5284,"JazzConcert":5285,"JazzFestival":5286,"Marveling":5287,"Mastered":5288,"MasterChefInTra":5289,"Numbness":5290,"Painful":5291,"PaintingEvent":5292,"Suffering":5293,"Suffocating":5294,"Traffic":5295,"TravelBu":5296,"VintageCars":5297,"VintageCheers":5298,"books":5299,"calcul":5300,"etery":5301,"eteria":5302,"phoneMy":5303,"ĠVenice":5304,"ĠVictory":5305,"ĠZen":5306,"ĠZero":5307,"ĠInstag":5308,"ĠQueen":5309,"ĠQuiet":5310,"Ġzestful":5311,"Ġtough":5312,"Ġtouch":5313,"Ġtechnique":5314,"Ġtechnology":5315,"Ġapplause":5316,"Ġapplauds":5317,"Ġopening":5318,"Ġopinions":5319,"Ġcartwheel":5320,"Ġcartoons":5321,"Ġcamarad":5322,"Ġcamera":5323,"Ġcrystal":5324,"Ġcountry":5325,"Ġcountdown":5326,"Ġfurry":5327,"Ġfurther":5328,"Ġfantasy":5329,"Ġfantasies":5330,"Ġfiery":5331,"Ġfierce":5332,"Ġwalked":5333,"Ġwaltz":5334,"Ġinformed":5335,"Ġinformation":5336,"Ġbusy":5337,"Ġbusiness":5338,"Ġmedal":5339,"Ġmedicine":5340,"Ġmental":5341,"Ġmentoring":5342,"Ġmiscommunication":5343,"Ġmiscalcul":5344,"Ġmessage":5345,"Ġmessages":5346,"Ġmeticul":5347,"Ġmetamorphos":5348,"Ġpenning":5349,"Ġpalate":5350,"Ġpotions":5351,"Ġpotential":5352,"Ġpassing":5353,"Ġpassions":5354,"Ġphysical":5355,"Ġphysics":5356,"Ġlimit":5357,"Ġlimits":5358,"Ġlighthearted":5359,"Ġdouble":5360,"Ġdoubt":5361,"Ġdetails":5362,"Ġdetached":5363,"Ġdidn":5364,"Ġdifferent":5365,"Ġdifference":5366,"Ġdressed":5367,"Ġdazzling":5368,"Ġdazzles":5369,"Ġeats":5370,"Ġanthem":5371,"Ġanthemic":5372,"icultural":5373,"Ġgaining":5374,"Ġgained":5375,"Ġgeneration":5376,"Ġgenerations":5377,"Ġtoxic":5378,"Ġtoxicity":5379,"Ġthunderous":5380,"Ġthunderstorm":5381,"Ġstrings":5382,"Ġrefresh":5383,"Ġrefuge":5384,"Ġconsole":5385,"Ġconsumes":5386,"Ġvanished":5387,"Ġvanish":5388,"Ġventure":5389,"Ġventuring":5390,"Ġvisit":5391,"Ġvision":5392,"Ġvolunteering":5393,"Ġvolunteers":5394,"Ġunburden":5395,"Ġunbridled":5396,"Ġunlocking":5397,"Ġunlocked":5398,"Ġunravels":5399,"Ġexpanding":5400,"Ġexpanse":5401,"Ġcleaner":5402,"Ġcleanup":5403,"Ġclaimed":5404,"Ġsparks":5405,"Ġfrontiers":5406,"Ġpleasure":5407,"ĠAnticipating":5408,"ĠAngk":5409,"ĠSharing":5410,"ĠShakira":5411,"ĠSwiss":5412,"ĠSwift":5413,"ĠSmoothie":5414,"SeniorStories":5415,"SeniorStargazer":5416,"SeniorMusicLover":5417,"SeniorArtistry":5418,"Ġoverwhelms":5419,"Ġoverwhelming":5420,"oryLecture":5421,"Encountered":5422,"Encountering":5423,"ĠChild":5424,"ĠChina":5425,"ConcertVibes":5426,"Ġenvelops":5427,"Ġenveloping":5428,"Ġbreakthrough":5429,"Ġrivalry":5430,"ĠProcrastination":5431,"ĠProductivity":5432,"ĠPopcorn":5433,"ĠLady":5434,"ĠLadies":5435,"Ġhappenings":5436,"ArtClassAdventures":5437,"ĠcafÃ©":5438,"Ġcafeteria":5439,"Ġcomplexities":5440,"CommunityGarden":5441,"CommunityChoir":5442,"Ġblank":5443,"Ġblankets":5444,"Ġblossoms":5445,"Ġblossoming":5446,"Ġbrightened":5447,"ĠGrand":5448,"ĠGrande":5449,"Ġerased":5450,"Ġamusing":5451,"Ġamusement":5452,"Ġsmoothie":5453,"Ġcrashing":5454,"Ġfreezing":5455,"Ġfreezes":5456,"Production":5457,"Productive":5458,"BloggerLife":5459,"WritingGroup":5460,"Ġsnowflake":5461,"Ġsnowflakes":5462,"Ġhealthy":5463,"CodingJourney":5464,"Ġutterly":5465,"Ġannouncement":5466,"Ġannouncements":5467,"Ġtraditional":5468,"Ġcurrents":5469,"BeautyInAging":5470,"HighSchoolArtist":5471,"HighSchoolCoder":5472,"Perfecting":5473,"TranquilMind":5474,"Ġtextbooks":5475,"Ġsleepover":5476,"Ġpublic":5477,"Ġpublished":5478,"Ġdocumenting":5479,"Ġdocumentaries":5480,"Ġnonchalance":5481,"Ġnonchalant":5482,"Ġunleashing":5483,"Ġenvironmental":5484,"Awash":5485,"Aching":5486,"Appreciation":5487,"AstronomyClub":5488,"Bonding":5489,"Betrayal":5490,"BallroomDancing":5491,"Baby":5492,"Crafting":5493,"CartoonNostalgia":5494,"Cruising":5495,"Darkness":5496,"Draped":5497,"Dazzled":5498,"DIYAdventure":5499,"DigitalArtistry":5500,"Fuming":5501,"FoodGaming":5502,"Fueled":5503,"Fashionista":5504,"Giddy":5505,"Giggles":5506,"HistoryLecture":5507,"Happiness":5508,"HikingAdventure":5509,"HeadphoneMy":5510,"Imbued":5511,"Isolation":5512,"Leafing":5513,"LazyDay":5514,"LanguageLearning":5515,"Motivated":5516,"Mastering":5517,"MovieNight":5518,"Meditating":5519,"MeditationJourney":5520,"MuseumDay":5521,"Mesmerized":5522,"NoFoodGaming":5523,"Nostalgic":5524,"NeverToo":5525,"OldFriends":5526,"Optimism":5527,"Peaceful":5528,"Political":5529,"ParkPicnic":5530,"Pensive":5531,"Quality":5532,"RoadTri":5533,"Relishing":5534,"Reading":5535,"Rainy":5536,"Skiing":5537,"Sneaking":5538,"Single":5539,"SoloTravel":5540,"Seeking":5541,"Sailing":5542,"Swept":5543,"Sorrowful":5544,"Someone":5545,"SelfieQu":5546,"SimpleJoys":5547,"Swinging":5548,"TVSeriesMar":5549,"Thrilled":5550,"Tok":5551,"TimelessMel":5552,"Technology":5553,"TrendyTeen":5554,"Uptown":5555,"Visited":5556,"Volunteering":5557,"Wonderment":5558,"breaking":5559,"cinated":5560,"capped":5561,"conscious":5562,"crushing":5563,"kenhof":5564,"kissed":5565,"mendations":5566,"memory":5567,"traveling":5568,"Ġurban":5569,"ĠAtlas":5570,"ĠReporting":5571,"ĠEnded":5572,"Ġumbrell":5573,"ĠâĢĵ":5574,"ĠIntellectual":5575,"Ġuplifting":5576,"Ġtitle":5577,"Ġticking":5578,"Ġtulip":5579,"Ġtroubles":5580,"Ġtempest":5581,"Ġtongue":5582,"Ġtangible":5583,"Ġtrick":5584,"Ġtorrential":5585,"Ġaesthetic":5586,"Ġawareness":5587,"Ġavoided":5588,"Ġawakened":5589,"Ġtherapy":5590,"Ġsituation":5591,"Ġsanctuary":5592,"Ġsplit":5593,"Ġsacred":5594,"Ġsemester":5595,"Ġsquad":5596,"Ġswayed":5597,"Ġseeker":5598,"Ġseparation":5599,"Ġsensation":5600,"Ġslithering":5601,"Ġsignificance":5602,"Ġsuffering":5603,"Ġcelestial":5604,"Ġcrime":5605,"Ġcemetery":5606,"Ġcoveting":5607,"Ġcustomer":5608,"Ġcapture":5609,"Ġcricket":5610,"Ġcorners":5611,"Ġcapsule":5612,"Ġcritical":5613,"Ġcyberbullying":5614,"Ġfrosty":5615,"Ġfascinated":5616,"Ġfacade":5617,"Ġfills":5618,"Ġfigure":5619,"Ġfocus":5620,"Ġfeaturing":5621,"Ġfixated":5622,"Ġfulfilling":5623,"Ġfundraising":5624,"Ġwelcoming":5625,"Ġwasteland":5626,"Ġweary":5627,"Ġwoven":5628,"Ġwounds":5629,"Ġwizard":5630,"Ġwanderlust":5631,"Ġwashing":5632,"Ġwrinkle":5633,"Ġwreckage":5634,"Ġinstead":5635,"Ġinterests":5636,"Ġinfectious":5637,"Ġinfusing":5638,"Ġinstrument":5639,"Ġinevitable":5640,"Ġinnovation":5641,"Ġinvigorating":5642,"Ġinitiative":5643,"Ġbelieve":5644,"Ġbamboo":5645,"Ġbeyond":5646,"Ġbranches":5647,"Ġboulder":5648,"Ġbarefoot":5649,"Ġbrilliance":5650,"Ġbracelet":5651,"Ġbelongs":5652,"Ġbarrier":5653,"Ġmasquerade":5654,"Ġmusings":5655,"Ġmourning":5656,"Ġmounts":5657,"Ġmulticultural":5658,"Ġmaterializing":5659,"Ġmeadows":5660,"Ġmirages":5661,"Ġmesmerizing":5662,"Ġminotaur":5663,"Ġmalfunctions":5664,"stirring":5665,"Ġprize":5666,"Ġpulsating":5667,"Ġputt":5668,"Ġpuppy":5669,"Ġportrait":5670,"Ġpodium":5671,"Ġphotographs":5672,"Ġpuddles":5673,"Ġpractice":5674,"Ġpiqued":5675,"Ġphoenix":5676,"Ġpiano":5677,"Ġpondering":5678,"Ġparadise":5679,"Ġpanorama":5680,"Ġlayers":5681,"Ġlonely":5682,"Ġliterature":5683,"Ġdessert":5684,"Ġdestination":5685,"Ġdemeanor":5686,"Ġdoodle":5687,"Ġdangle":5688,"Ġdifficult":5689,"Ġeagerly":5690,"Ġeuphoric":5691,"Ġelaborate":5692,"Ġeternal":5693,"Ġecstasy":5694,"Ġelusive":5695,"Ġethereal":5696,"Ġanswers":5697,"Ġgourmet":5698,"Ġglobe":5699,"Ġgazes":5700,"Ġgrapples":5701,"Ġgilded":5702,"Ġgondola":5703,"Ġgymnast":5704,"Ġtogetherness":5705,"Ġthrived":5706,"Ġthumbs":5707,"Ġthorns":5708,"urricular":5709,"Ġholidays":5710,"Ġhallway":5711,"Ġhigher":5712,"Ġharmonizing":5713,"Ġhockey":5714,"Ġhurtful":5715,"Ġhorrors":5716,"Ġhobby":5717,"ributing":5718,"Ġstagnant":5719,"Ġstrategies":5720,"Ġstronger":5721,"Ġrequiem":5722,"Ġreigning":5723,"Ġrecommendations":5724,"Ġrejection":5725,"Ġreggae":5726,"Ġregrets":5727,"Ġreigns":5728,"Ġrevisit":5729,"Ġchains":5730,"Ġchandeliers":5731,"Ġconference":5732,"Ġconformity":5733,"Ġvideo":5734,"Ġviolin":5735,"Ġvolcanic":5736,"Ġjoint":5737,"Ġunparalleled":5738,"Ġunsolvable":5739,"Ġuntangle":5740,"Ġunpredictable":5741,"Ġunattained":5742,"Ġshopping":5743,"Ġshooting":5744,"Ġexistence":5745,"Ġexciting":5746,"Ġexuberance":5747,"Ġexceptional":5748,"Ġextraordinary":5749,"Ġextracurricular":5750,"Ġrandom":5751,"Ġrichness":5752,"Ġcomeback":5753,"Ġnegativity":5754,"Inspiration":5755,"Indifferent":5756,"Ġathlete":5757,"Ġsprinting":5758,"Ġspellbinding":5759,"second":5760,"Ġassignments":5761,"anticipated":5762,"Ġprospects":5763,"Ġprosperity":5764,"Ġlakeside":5765,"Ġwhirlwind":5766,"ĠAchieved":5767,"ĠApplauding":5768,"ĠAbstract":5769,"ĠAmazon":5770,"Ġintensifying":5771,"ĠSinatra":5772,"ĠSheeran":5773,"SeniorExplorer":5774,"SeniorWriter":5775,"SeniorGardener":5776,"SeniorCyclist":5777,"SeniorActor":5778,"SeniorHiker":5779,"Ġdevelopment":5780,"Ġdepartment":5781,"Ġdepths":5782,"Reconnecting":5783,"Ġkickflip":5784,"Ġdisheartening":5785,"TheaterProduction":5786,"spirited":5787,"ĠMission":5788,"ĠMixing":5789,"ĠMichael":5790,"ĠMiracles":5791,"ĠMarley":5792,"ĠMetallica":5793,"Ġsunbeams":5794,"Enveloped":5795,"Entangled":5796,"Enrolled":5797,"Engulfed":5798,"ĠCareer":5799,"ĠContributing":5800,"ĠColdplay":5801,"ĠCrisis":5802,"ĠClassroom":5803,"ĠColosseum":5804,"Ġradiating":5805,"Ġimprinted":5806,"Ġimpossible":5807,"Stumbling":5808,"StealthMode":5809,"Contemplating":5810,"Convinced":5811,"Ġenjoyment":5812,"Ġenvisioning":5813,"Ġenlightened":5814,"Ġencourage":5815,"Ġperseverance":5816,"Ġgladiator":5817,"TeenMusicLover":5818,"TeenProblems":5819,"TeenConfessions":5820,"TeenMemories":5821,"TeenAchievements":5822,"TeenHomeDecor":5823,"TeenBlogger":5824,"TeenHumor":5825,"Ġquicksand":5826,"Ġcollaboration":5827,"Ġcollection":5828,"Ġperplexed":5829,"Ġriffs":5830,"Ġripple":5831,"Ġtrivialities":5832,"ĠDealing":5833,"Ġturmoil":5834,"Ġshowcase":5835,"Ġscavenger":5836,"Ġembraces":5837,"Ġembarrassment":5838,"ĠFangirling":5839,"ĠFreddie":5840,"ĠFarewells":5841,"ĠFerrari":5842,"ĠPromoting":5843,"ĠParisian":5844,"ĠPicchu":5845,"Ġempowered":5846,"Overjoyed":5847,"ĠTikTok":5848,"ArtGallery":5849,"Spellbound":5850,"Spontaneously":5851,"ĠBruno":5852,"Ġprecision":5853,"Ġprepares":5854,"Ġprecariously":5855,"Ġpremiere":5856,"Ġrainforest":5857,"ĠNonexistent":5858,"Ġtombstones":5859,"Unveiling":5860,"Underneath":5861,"ĠKeukenhof":5862,"Ġengrossed":5863,"CharityRun":5864,"ĠJamaica":5865,"ĠOlympics":5866,"Ġescalates":5867,"ClassCountdown":5868,"ClassicRides":5869,"MusicNovice":5870,"ProcrastinationNation":5871,"ĠUnpleasant":5872,"ĠUnexpectedly":5873,"Ġfireworks":5874,"Intrigued":5875,"Ġsportsmanship":5876,"LateNightReading":5877,"Ġterritories":5878,"Ġterrorized":5879,"Ġchemistry":5880,"Ġremnants":5881,"Ġremembered":5882,"Ġvaliantly":5883,"Ġweightlifter":5884,"BookwormLife":5885,"MemoryLane":5886,"Ġsoundtrack":5887,"Ġfootprints":5888,"Ġgraciously":5889,"Ġheadphones":5890,"Ġrestaurant":5891,"ĠDisheartened":5892,"ĠDisneyland":5893,"Ġobservatory":5894,"WeekendEscape":5895,"DanceAllNight":5896,"FloralBeauty":5897,"FamilyRecipes":5898,"MasterChefInTraining":5899,"TravelBug":5900,"ĠInstagram":5901,"Ġcartwheels":5902,"Ġcamaraderie":5903,"Ġmiscalculation":5904,"Ġmeticulous":5905,"Ġmetamorphosis":5906,"Ġlightheartedness":5907,"Ġrefreshing":5908,"Ġunburdened":5909,"ĠAngkor":5910,"HeadphoneMystery":5911,"MovieNightStruggles":5912,"NeverTooLate":5913,"PeacefulAfternoon":5914,"RoadTrip":5915,"SelfieQueen":5916,"TVSeriesMarathon":5917,"TimelessMelodies":5918,"Ġumbrella":5919,"Ġbracelets":5920}